0.298250,-0.553457,-0.090207,0.977451,-0.498264,0.533809,-1.118860,-0.046423,1.506106,-0.627393,-1.434561,-1.552975,-1.934118,-0.569943,-1.199012,0.621209,0.174797,0.221081,-0.642017,0.155444,0.266272,-0.311674,0.473013,0.729316,1.212626,-0.286414,-0.059251,0.984014,1.555404,0.855206,0.405140,1.679329,-1.949940,-0.448230,1.016162,0.470285,-1.182195,-0.205112,0.487713,1.048134,-0.131416,1.244799,-0.615986,0.128028,0.535952,-0.345939,0.224497,-0.357719,-0.416576,-0.190984,0.046901,-0.139236,0.862557,0.631269,0.304808,0.372568,1.556617,0.201098,0.419613,-0.162892,0.373514,-0.170966,-0.050930,1.081129,-0.499234,0.550193,-1.760759,-0.054701,0.658975,0.288258,-0.268325,0.228615,-0.740769,-0.800974,0.576087,-0.458394,-0.209020,1.477791,-0.292538,1.561718,-0.404347,-0.688708,0.479333,0.907889,0.569335,0.459609,-0.081133,-0.180670,-0.496967,0.135865,0.387882,-0.352304,0.016655,-0.909972,0.820256,0.013415,-1.510853,0.624900,-0.211234,-1.204801,-1.305190
-1.578912,0.268752,0.148032,-0.872803,0.317115,0.259855,0.870206,-0.009857,0.705693,1.716068,0.395609,-0.561364,-0.445946,-0.657109,0.103041,0.568921,0.184347,0.121979,-0.609217,-0.283122,-0.348981,1.439781,0.182070,-0.965518,-0.572945,-0.019699,-0.601663,-0.800167,1.187974,-1.693706,0.355756,-0.993586,-0.179991,-0.938328,0.095280,0.079666,-1.609650,-0.775278,0.384406,-0.362524,0.897984,-0.403016,-0.331315,0.190345,-0.253708,-0.402563,1.013379,0.380813,0.546800,-0.230386,1.476603,0.106476,0.413199,1.982946,-0.143410,-0.542812,-0.635390,-0.768542,1.400949,-0.500359,-0.784697,0.263156,-0.709383,-0.681567,0.455607,-0.450936,-1.066151,-0.770276,0.003059,-0.051074,-0.538340,-0.260799,0.279129,-1.327269,0.147563,1.962279,-0.085602,-0.927257,-0.124975,-0.959878,0.943597,0.492730,0.178637,-0.358628,-1.997057,0.710739,0.094166,0.561045,0.532784,0.408624,-0.200407,-1.397031,0.345548,0.900101,-1.136986,-0.507234,0.070962,0.344845,-0.260731,-1.313544,2.332758
1.814176,0.898537,0.087527,-0.889795,-0.123648,0.723177,-0.152427,-0.003980,0.046721,-0.636552,1.203496,1.466307,0.144599,-0.087509,0.509032,-0.538672,-1.257617,-0.395957,-0.089510,0.226994,0.638479,1.086802,0.185501,0.389044,-0.545526,2.167479,-0.894039,0.115291,0.401176,1.013881,-0.270550,-0.619316,1.710838,0.136844,-0.478930,-0.263145,-0.079665,0.577167,-1.066898,0.637215,-1.411769,0.671281,-1.041019,-0.283538,1.504799,0.178694,-0.210544,-0.219243,-1.089224,-0.124391,0.738535,-0.153344,0.957284,0.664883,-0.430381,-1.231929,1.243027,0.129895,-0.890359,0.978102,-0.088728,-0.253791,-0.244530,0.035810,-0.164404,1.097787,0.925370,-0.264103,-0.296617,1.385199,-0.400181,0.498251,-0.206424,0.945561,-0.162012,1.217824,-0.436609,-0.675877,0.255484,-2.130476,-0.864885,-0.894110,-0.225323,-0.284187,-1.436583,1.216871,-0.386695,-0.123682,-1.342035,-0.752232,-0.198541,0.754120,-0.239646,0.811084,-0.216774,-0.919135,0.479864,0.577673,-0.440396,1.695227,-1.777225
0.369168,-0.905569,0.055866,0.976993,-0.230275,-0.290345,1.193532,1.941024,-1.038515,1.439606,0.801767,-1.193766,1.705232,-0.128480,0.850139,0.639999,0.918660,0.926952,-0.041903,-0.242072,0.932536,-0.895506,-1.881669,-0.688154,0.496180,-0.862867,0.046550,0.656834,0.737443,0.244937,-1.346005,0.337504,-1.764500,-0.132962,-0.496217,0.125957,0.723655,0.232543,-0.559906,0.716065,0.351350,-0.454961,-0.488339,-0.343963,0.359133,-0.470601,0.392854,-0.299051,0.909247,-0.328210,0.920000,0.153576,0.565995,1.520193,1.471235,-0.351655,-0.749024,-0.563705,0.274608,-1.113247,-0.883313,0.466361,1.199342,0.024497,0.537280,0.379019,0.455159,0.348834,0.915156,0.791866,-0.699599,0.487265,1.054230,-0.556004,-0.347150,0.002673,-0.255144,0.239782,-0.209091,0.381105,1.114500,0.448515,0.361859,-1.494379,-0.684955,-1.442668,-0.431720,-0.333561,0.539032,-0.228432,0.969115,-0.905540,1.028107,-0.207334,-1.166795,-0.730551,-0.536400,-0.851367,0.183218,-0.426174,0.558077
1.299890,1.191902,0.289422,-1.179139,-1.466484,-0.209535,0.902146,-0.103805,0.347623,0.355784,0.849408,0.370546,-1.329665,-0.351959,1.046216,-0.975204,-0.150874,1.434012,-0.348676,-0.003332,-0.863030,2.480934,-0.164950,1.152851,0.157945,-0.238703,0.550525,-1.554641,-1.224290,-1.881877,0.737414,0.053391,1.379491,-0.405887,-0.480033,0.196779,-2.077437,-0.537698,0.905722,-0.675689,-0.315702,0.533512,-0.173966,0.314866,0.683853,-0.402421,0.227363,-0.344147,-0.497919,0.628899,-0.455594,-0.855255,-1.085696,0.341824,-0.229104,1.326708,0.338383,0.126206,1.128384,1.393239,1.114635,-0.383832,0.258605,-0.347715,0.320654,-0.240269,-1.767126,-0.612074,-0.408403,-0.676417,0.152757,0.033922,-0.826739,0.832858,-0.901310,1.386125,-0.416759,-1.326888,-0.452504,1.001807,-1.084076,-0.616047,-0.133854,0.421897,-1.185019,1.215878,-1.472874,0.421987,0.388715,0.712272,0.081787,0.774820,-1.149341,0.232029,-0.786896,-0.034299,0.739371,0.509297,-0.220190,-0.622079,0.712918
0.054618,-1.314416,-0.288729,-0.251099,0.171598,-0.332420,0.278969,0.211826,0.530342,-0.755836,0.348004,-0.519867,-0.215972,1.019789,-0.732733,-0.759852,1.483143,0.269830,-0.503102,0.249060,0.799227,0.543182,0.597521,-0.460411,-0.345570,0.502377,0.301989,0.897609,-0.088243,0.668881,0.368118,0.119327,1.286585,0.802626,-0.661099,0.824535,1.598346,-0.663468,-0.639645,-0.211382,0.859082,0.672866,-0.195055,0.658007,1.685464,-0.642189,0.342712,-0.216790,0.226401,0.535207,-0.823044,-0.762127,-1.545755,1.338598,-0.210450,0.264955,0.978632,1.831572,-0.117831,-0.086968,0.941574,0.320276,0.142138,-0.925784,1.397016,-0.193028,-1.475244,-0.485207,0.509040,1.571017,-0.130844,0.375630,0.513969,1.035478,-0.635030,-0.902671,0.297160,1.546003,-0.278845,0.896781,0.453373,-0.686588,1.093739,0.387298,-0.111118,-1.078397,-0.028917,0.205156,0.956792,-0.569793,-0.110925,-0.186364,-2.405712,0.349088,-0.641506,-1.162848,1.019514,0.339444,0.178400,-0.406527,2.274646
0.863006,1.200913,-0.315360,-0.812413,-1.249973,0.172257,-0.192923,-0.193893,-1.165928,0.276412,0.714028,1.525910,-1.199254,0.208275,1.573058,0.340317,-0.375001,0.221496,-0.424207,-0.108122,-1.075196,-0.794458,0.673135,1.756447,-1.715538,-0.259925,0.372548,0.311369,-0.350980,-1.848505,-0.104621,0.131247,0.610970,-0.403703,-1.393156,0.000659,0.788322,1.081703,-0.230189,-1.786401,-1.514475,-0.798784,0.296460,0.606451,-1.610845,-0.360994,0.502245,-1.237404,0.124224,-0.166614,-0.758380,-0.221899,0.128855,1.431273,-0.018348,0.346161,-1.007206,-0.976192,0.325953,-1.126562,-0.159890,0.130933,-0.572179,0.076667,0.315532,0.866846,0.856204,0.160796,-0.593594,-0.677077,-1.222458,0.339610,-0.607206,0.382349,-0.409257,1.064732,-0.349719,-0.592210,0.193284,-2.058728,-1.078594,1.556666,0.343238,-0.471827,-0.606472,1.322363,-0.104734,-0.436185,0.153545,1.408517,-2.477770,-2.165779,0.971033,1.412810,-0.407132,0.698816,0.841109,0.216564,0.312856,-0.067383,1.323061
-0.995734,-0.023209,-0.374631,-1.525211,0.983048,-0.638023,-0.079080,-0.512789,0.530045,1.117108,-0.553260,0.270311,0.989816,-0.937890,2.162389,-0.898611,-1.488807,-1.070191,0.017978,0.284340,0.601062,-0.542342,0.194865,-0.292000,-1.010451,0.054306,-0.088607,-0.474564,-0.741179,-0.386701,-0.793375,1.026146,-0.282831,0.452300,0.423519,-0.160076,-0.885649,0.704128,-0.914064,1.605824,0.596956,-1.385412,-0.045845,1.756768,-0.979142,0.067398,0.933865,1.371374,0.759870,-0.210575,0.325727,1.449063,-0.163612,0.259369,-0.945313,-0.493270,-1.417564,-0.001233,-2.408096,-0.648945,1.147230,-0.239083,-0.567849,-0.284760,-1.681458,-0.914931,-0.029292,-0.464908,-0.259387,-1.592553,0.553022,0.181356,0.683247,0.556952,0.732122,-0.163917,0.231596,-0.139152,-0.033779,0.634587,-0.353963,0.677691,-0.471671,0.039064,1.079602,0.371136,0.130271,0.096337,0.568370,-0.097004,0.395403,-1.074609,-0.019604,-0.689614,2.131817,-0.283200,-0.522047,0.429010,-0.363114,0.587024,1.289859
-1.339904,0.114836,-0.277165,1.645175,-1.228095,0.295190,1.144962,-0.104855,0.421255,0.053459,-0.012160,1.080231,0.371357,-1.017620,-1.492924,-1.192261,-0.027135,-0.861795,0.013560,1.037176,-0.552553,0.499117,2.744127,0.049303,1.687082,-0.894026,-0.081397,0.610954,-0.731225,0.818696,-0.210463,-0.433335,1.425011,-0.282885,0.325792,0.112435,0.208129,1.281530,-0.047425,-0.566764,0.911735,-1.114099,0.335582,-1.628342,-0.560962,-0.092803,-1.217676,-0.541253,-0.035835,0.187136,-0.540906,-1.187234,0.534882,0.130452,-1.828602,-0.309158,0.172326,1.730382,-0.027497,0.488007,1.292049,-0.056446,0.355055,-0.679588,0.461277,-0.658112,-0.892084,0.484769,1.766157,0.871008,0.035871,-0.165109,-1.204232,-1.169139,0.402559,-0.567227,0.471227,0.470956,-0.853328,1.205920,1.618978,0.127602,0.022363,0.552567,-1.991429,-1.763314,-0.719782,0.450299,0.505825,-0.261052,0.729033,0.131417,0.111803,1.117834,0.099757,0.380954,-1.576779,-0.854770,0.140535,-1.159233,-0.018350
-0.683930,-1.189005,0.266011,1.529854,-0.721840,-0.748239,-0.783735,-0.294663,0.723426,0.799912,-0.481312,0.957964,-1.856534,0.266535,-0.054278,0.333838,-0.219265,-0.532276,-0.202056,-0.075298,0.531892,-0.464920,1.162943,0.122410,1.503738,-0.262784,1.263458,1.164922,0.305452,1.610567,0.084502,-1.359255,1.483702,0.737842,1.147716,-0.078060,0.864867,-2.317328,-0.407105,0.064431,-0.273077,0.358360,1.428022,-2.220364,0.746856,-0.316525,-1.468229,0.153323,0.187634,0.244403,-0.500613,-0.755260,-1.111667,-1.395423,1.032202,0.135089,0.329741,1.387057,-0.746367,-0.489032,-0.327743,0.264730,-0.126793,-2.045520,-0.021928,0.098515,1.345781,0.137038,1.134043,-0.050562,-0.669602,-0.301884,-0.687738,-0.682881,-0.356154,-1.254022,0.295107,-0.131468,0.140215,0.475360,0.930549,0.485366,0.290709,-0.391669,-0.741437,-0.881303,-0.546053,-0.026661,0.118505,0.557718,1.306772,-0.176045,-0.225350,0.935032,0.501160,0.029275,0.128448,0.120915,-0.469225,-0.003428,-0.563401
-0.358201,0.435756,-0.350426,-1.273759,-0.039930,-1.207813,0.520314,-0.135709,0.860223,1.209356,0.850163,0.855116,-0.514283,-1.115556,1.560758,-1.599300,-1.610124,-1.464863,1.046806,-0.696731,0.007398,0.123478,-1.612440,0.848737,-0.299579,-0.792773,-0.639324,-0.296669,-1.892125,-1.450317,-1.223428,0.650838,0.895954,0.066654,-0.713492,0.149793,-0.138704,1.478948,0.037324,-0.375416,-0.297441,0.253810,-0.449172,1.784042,0.628526,-0.014046,0.145984,-0.892217,-1.153113,-0.417289,1.691475,0.849776,0.453299,-1.602392,0.482843,-0.351065,-0.098897,-0.642673,-0.891136,-0.295199,0.932048,0.077203,0.224108,-0.171908,-0.468764,0.409595,-0.538225,0.225404,-0.079819,-0.753958,1.449995,0.058330,0.443799,-0.242868,0.190977,-0.753322,0.311621,-1.327730,-0.373637,0.000705,-1.059563,-0.137349,-0.102256,-0.248451,1.359107,0.814974,1.224091,-0.066193,1.184375,1.099812,-1.127772,1.182137,1.227084,-1.824677,-0.449296,-0.435856,-1.443724,0.017634,0.426020,-0.910277,-0.119616
-0.112805,0.282366,0.330382,1.081098,0.210305,-1.397052,-1.717514,-0.484491,0.635376,-1.621276,1.025890,0.070708,1.178910,-0.591583,-0.194375,0.796922,-0.135786,-0.069594,-0.332476,0.246151,-1.229130,0.884060,0.944225,-0.372787,2.713439,2.002268,0.030586,-0.241032,0.187181,-0.149753,0.497864,-0.502729,1.379546,-0.477046,-0.864383,0.393857,-0.686888,0.010301,0.470881,-0.279867,0.653405,-0.203765,0.092776,0.989377,-1.082407,-0.047748,-0.145370,0.259076,0.711708,-0.099912,1.679767,-0.626969,0.125174,-0.259911,2.005397,0.463983,2.087858,-0.323690,0.158694,0.016093,-1.196896,0.143407,0.937589,0.497916,-0.534259,0.119427,1.016693,-0.216373,1.020696,0.196815,-0.035636,0.355899,1.162598,0.808987,-0.613767,-0.375199,0.445116,-0.494512,-0.650294,0.252350,0.520714,-0.517151,-1.153855,0.024572,-1.552877,-0.167031,0.655935,0.519160,-0.159037,0.695712,-0.787317,0.739330,0.267705,-1.343813,0.876384,0.769695,-0.814971,-0.555566,0.048772,1.433112,-0.481472
-0.148078,-0.701666,-0.464219,-0.401819,-0.035899,-0.646273,-1.181244,-0.209434,-0.414516,-1.146682,-1.077529,-0.290846,0.548641,-0.371354,-0.832787,-0.031806,-0.241002,-0.214818,0.247418,-0.322835,1.545139,-0.410019,0.304191,-0.494317,-0.128868,-0.112948,0.174405,1.641032,0.513100,0.836107,0.059908,0.337862,-0.683061,-0.959836,0.181872,-0.054924,-0.943322,-0.730256,1.646614,0.165944,-0.561475,-0.782454,1.134850,0.633919,0.432724,0.416782,1.662989,1.068225,-1.640010,0.088483,-1.359632,0.639650,-0.482982,-1.453000,-0.186549,0.460824,0.586098,-2.623050,-0.274023,-0.211347,-0.569747,0.223884,-0.342522,1.766901,-0.004284,0.793903,0.464374,-0.143237,-0.061414,-0.432228,-0.558688,0.142905,0.263539,0.648833,0.849995,-0.041075,-0.502325,0.185049,-0.776803,0.559075,-0.887754,0.547653,-0.427519,0.793562,0.724439,-1.254309,1.622464,-0.150027,0.108742,0.418573,1.376395,-1.243713,-0.675305,-0.729816,-0.090034,-0.650975,-0.496457,0.434133,-0.101313,-0.378102,-1.839986
-0.077416,0.499887,0.068181,-0.751094,-0.851467,-0.821007,-0.833387,0.897355,0.441366,0.467694,-0.203055,0.291556,1.615814,0.219334,0.087375,0.627520,0.831876,0.783448,0.877764,0.031696,0.745849,-0.207673,0.658562,1.142188,0.126825,-0.088385,-0.844123,0.629496,0.475448,1.286320,-1.515499,-0.250389,-1.257549,0.759158,0.668855,-0.127133,-0.712190,1.363158,0.596716,1.341260,0.369793,0.275006,0.543277,0.128729,-0.939365,-0.522098,-0.239928,-0.626309,0.669283,-0.415688,-1.020102,-0.955700,-0.224485,-1.433003,0.534377,0.300263,0.087358,-1.292462,-0.407179,-1.545572,-0.260393,-0.309185,-1.014812,0.381683,-0.153388,-0.275022,0.259804,1.514880,-0.609398,-0.322301,1.204669,-0.202853,-0.316648,0.091183,-0.065214,-0.733654,0.302509,-0.500043,-0.672063,1.248001,1.065049,1.212070,0.304878,-0.149154,0.779853,-0.453391,1.093730,0.146386,-0.538241,-1.269735,-0.048855,-0.064583,0.363917,-1.571484,-1.437860,-0.763766,0.238342,-2.027308,0.510822,1.349085,0.278319
0.459271,-0.727431,0.030105,0.219950,-0.258871,1.113443,-0.739006,0.303836,0.480399,0.635209,0.355715,1.510016,1.159191,0.921522,0.448402,1.324991,-1.187407,-0.060531,-0.472734,-0.357745,1.042883,0.089683,0.267027,0.303985,-1.360728,0.343099,-0.302714,0.225886,0.337841,-0.715104,0.034722,1.584995,-0.878179,-0.013600,-0.178277,-0.351716,-0.446872,-1.013925,0.205854,0.511238,-1.153126,0.700246,-0.423685,-0.489613,0.022330,0.264150,-0.185478,1.150224,0.733474,0.287438,-1.276353,0.470965,0.533674,-0.150196,-0.022551,0.811860,0.659356,-1.382528,-0.845283,-1.224176,-0.157755,0.384659,0.903784,-0.112668,0.789121,0.258344,0.805959,-0.173413,0.305338,-1.013518,1.500835,0.069137,-0.188823,-0.307966,0.726127,-0.941864,-0.396614,-1.179654,1.352665,-0.413595,-1.045580,1.188270,-0.587753,-0.493764,-1.059852,0.156451,-0.382403,0.064482,0.906822,-1.641087,-0.105450,-0.581433,-0.083251,1.500722,-0.534653,-0.866531,0.342247,0.158317,-0.450894,0.815742,-0.339987
-0.290029,-1.591190,-0.074855,-0.543915,1.096713,0.589060,0.284776,0.514427,-0.064609,0.032114,-0.676160,-1.005125,-0.587044,0.883061,-0.391246,-0.564742,0.067233,0.485036,-0.558499,-0.372691,-0.060824,-0.211667,0.249378,0.091554,-0.436334,-0.055495,-0.641020,-0.991921,0.877574,0.259228,0.006285,-0.344613,-1.002879,-1.107842,-0.257253,-0.702688,1.478655,1.399868,-0.391735,-0.808940,0.687723,-1.150825,-2.032702,0.333512,-0.455440,-0.106506,0.570602,1.753371,1.413891,0.004283,0.347094,1.133549,1.840812,-0.687470,-0.267210,-0.157842,0.921808,1.017312,0.706389,-0.780946,0.134450,-0.359516,-0.543959,0.148330,-0.863636,-0.943743,0.688990,-1.495485,0.617224,1.420824,0.476748,0.197783,-0.717438,1.085488,-1.110532,-0.051751,-0.072864,1.819553,-0.508404,0.543090,-0.533923,0.743154,1.979121,0.756656,0.593180,-0.442917,-1.402377,-0.095156,1.059901,-0.295109,-0.697563,-1.417696,-0.376914,0.118320,0.551280,1.037953,0.399570,0.583663,-0.098991,0.457785,-0.280531
-0.332011,-0.468701,-0.096852,-0.072196,0.145888,1.028212,1.768450,0.785868,-1.026326,0.491582,0.467277,1.709091,-0.009879,-0.638901,-1.570401,1.392513,-0.126450,-0.304707,1.715665,0.472925,-0.244864,0.584349,-0.158376,1.266202,0.354727,-0.818887,1.483040,-0.929997,-0.441362,-0.305529,0.644839,0.358675,0.284132,0.529409,-0.228330,0.405812,-1.123578,-1.029170,0.042437,1.011608,-1.214705,0.305978,-0.307554,0.069869,-0.529481,0.101875,-0.931538,-0.740867,0.339948,-0.269800,-2.164540,1.494771,-0.255467,0.491318,0.484491,-0.404780,-0.853857,-1.802603,2.345343,-0.099350,-1.193469,-0.369882,-0.384100,-0.052470,0.780231,-0.219157,0.194536,-0.191850,-0.222426,0.393468,0.032837,-0.405399,-0.173336,-0.163050,-1.325032,-1.445976,0.439469,0.676409,0.701835,-1.067477,-0.640475,0.252545,-0.589130,-0.403274,-1.786365,-0.162151,-0.181402,0.461012,-0.224867,0.032268,0.917331,0.866985,0.106006,1.618007,-0.096191,0.322979,2.225282,-0.882765,-0.057540,0.882674,-0.662611
-0.852308,0.262497,-0.055270,0.267306,0.928428,0.487715,0.549567,-1.511352,0.907492,1.244908,0.863528,-2.157589,0.758388,-0.588661,-0.429589,-0.585721,0.422504,0.288318,-0.153527,0.092439,0.720442,-1.127260,-0.087613,0.313221,-1.075395,-0.052994,-0.600827,-0.619866,0.041342,0.458737,-0.531301,0.784524,-0.439121,1.478910,0.541765,-0.351031,0.605642,0.213505,0.907367,-0.151672,0.685614,0.200000,-0.546763,1.159440,0.124102,0.422047,0.545858,1.557527,-0.346113,-0.230900,2.648911,-0.280899,-0.335556,1.593441,-0.462561,-0.415821,0.222434,-1.903675,-1.013945,-0.189128,-0.635361,-0.526480,0.393241,-1.258164,0.512641,-0.592939,-0.407410,0.128901,-0.069871,-1.507566,-1.096206,-0.298045,1.022380,0.266172,-1.187449,0.946701,0.248773,-0.178354,-0.198084,-0.964925,-0.245556,-0.174813,-0.714171,0.341362,-1.290988,0.595829,1.252483,-0.266074,0.754925,0.423516,0.544924,0.132557,-0.539440,-0.736510,0.328338,-0.940427,-0.237818,-0.421955,0.026558,1.210281,1.523805
-0.081841,0.250482,0.026285,0.039984,0.200153,-0.404050,-1.027663,-0.381369,-0.252092,0.697643,0.356966,-0.287933,-1.298509,1.254539,1.872264,0.983650,0.250206,0.152778,-0.196389,-0.071605,-1.700624,-1.358636,0.159144,-1.524749,-0.204902,-0.419568,-0.320152,1.403244,-0.828885,-1.358252,1.222586,1.328987,0.984796,0.061432,-0.398476,-0.101158,-0.662001,0.945929,0.775798,-1.316802,-0.338114,0.774246,-0.299793,0.663026,0.225034,1.165398,-0.103074,0.213226,-1.603911,0.153145,-1.103520,-0.996090,-1.249692,-0.608127,-0.601618,-0.532664,0.406034,1.089551,1.221429,-0.637355,-0.613384,-0.198013,-1.341109,0.111127,-1.188918,-0.159197,-0.740789,1.267777,1.042413,0.117363,0.938109,0.009044,0.543611,-0.776503,-0.041648,1.023981,0.432163,-1.919676,-0.359013,-0.287492,1.503561,-0.666782,-0.482361,0.297019,0.141916,0.635885,-1.401592,0.244322,0.683581,-0.444182,-1.029739,0.718557,0.270989,1.490716,0.199479,0.493837,-0.439960,1.556744,-0.258922,-0.129048,1.516743
0.574763,1.122856,0.271285,0.578024,-0.478291,-0.587541,-0.896814,-0.668499,-0.914584,0.662487,1.098763,-0.329908,0.000288,0.042469,0.485619,-0.642160,0.576770,0.080585,0.849062,0.441597,-2.208221,0.523235,-0.482985,-1.014870,0.985996,0.267812,0.608265,-0.913252,0.866879,0.991380,0.622409,-1.093809,-1.144134,0.592801,-1.536810,0.451284,2.151958,-0.656437,-0.632007,-0.260200,0.218911,0.068005,2.264651,-0.932650,0.442478,0.252597,0.589002,0.140613,2.121666,-0.809186,0.340295,-0.353924,-0.089693,-0.679083,0.426247,-0.070534,-0.895228,1.845581,0.850557,0.942252,0.992419,-0.026494,-0.505810,-0.629119,0.314440,-0.458117,-0.213352,0.021866,-2.069730,0.643324,-1.415226,0.122431,-0.773120,0.188769,0.828236,-0.604870,-0.141589,0.826376,0.013313,0.421948,0.537898,-1.804402,-0.082647,-0.357269,0.685699,-1.080867,-0.540430,0.078343,-1.555715,-0.641475,0.318219,0.756972,-0.700582,0.703610,-0.048615,-0.417531,-0.389284,0.377252,0.629349,0.503264,0.008295
-0.263469,0.189274,-0.112695,-0.873012,-0.537173,-0.428350,0.936178,0.529039,-0.766682,-0.894730,-0.848797,1.453297,0.312106,-0.373212,0.098579,0.885704,0.545071,0.257062,-0.860447,0.452448,-0.136289,-0.231544,-0.213990,0.588102,-0.896866,-0.444250,-0.244112,0.202871,0.684417,0.563562,0.097123,-0.636063,-0.957756,0.925421,-0.053942,-0.005398,-0.370598,-0.929627,-0.705750,1.337985,1.005825,-0.645390,-0.851382,-0.841859,-0.552748,0.270280,-0.033721,0.095393,0.068732,0.157439,-0.165988,0.513796,0.259484,0.698843,-0.273910,0.664843,-0.099839,-0.332348,-1.377016,2.160394,0.547922,0.449615,0.697626,1.276033,0.855243,-0.769535,1.367050,-0.825737,-0.992654,0.492489,-1.080944,0.472491,-0.606910,0.043073,1.254367,0.062273,-0.400879,0.712455,0.427623,-0.502350,-1.111082,-0.289305,-0.628428,1.101588,0.908948,-0.140498,0.638850,0.084725,-0.975622,0.552815,0.278015,-0.669655,1.382523,-1.271214,-0.605879,0.367297,-0.067563,0.679419,-0.078345,-0.898027,-0.854465
0.437754,-0.139723,0.416622,-0.409250,0.249038,0.001510,-0.660627,-0.499774,0.289791,-1.137552,-1.104255,0.063037,0.487943,1.525261,-1.885859,-1.105327,0.609477,-0.179538,1.723422,-0.026921,-0.519086,0.253623,-0.301155,-0.854767,-0.153239,0.347863,0.175256,-0.896851,1.134644,0.227246,0.591627,-0.391393,-0.615104,0.139983,-0.626042,-0.090502,-0.009063,-0.597858,-0.372488,-0.552955,0.499462,0.147158,0.160441,0.497329,0.401150,0.275687,1.074475,-0.402001,0.545273,-0.161609,-0.586643,-0.126134,-1.398780,-0.681778,-0.068167,-0.121122,-0.673956,1.089610,-0.000031,-1.088393,0.774709,0.346080,-0.270979,0.158433,-0.344703,-0.079660,-0.333920,0.746412,-0.268821,0.814500,0.770093,0.392418,-0.758058,0.180523,0.110937,-0.252031,-0.267752,-0.432215,1.258890,-0.402042,-0.212659,0.132360,-1.284861,1.176699,1.991319,0.612137,0.138798,0.001423,0.161203,0.106671,0.736841,0.234129,0.577075,-0.868693,-0.244579,0.282113,0.338460,-0.929742,0.289437,-0.954453,3.425360
-0.732000,-1.206397,-0.260683,-0.446795,0.303981,1.885349,0.912347,-0.330473,-0.487465,-2.915136,-1.261140,-1.080379,1.739801,1.654545,-1.768718,-0.157177,-0.583568,-0.321363,-1.307047,0.116413,-0.310382,-0.102391,0.256434,0.672615,-0.220402,0.401525,0.485948,-1.545222,-0.166853,0.333865,1.268999,0.051484,-0.918766,-1.593077,0.696863,-0.448848,0.300358,-0.101304,-0.616994,0.144698,-0.480939,-0.606071,0.174078,0.052121,0.327058,0.287880,1.085436,-0.062899,-1.230478,0.109761,-0.038439,0.900441,-0.694046,-0.094911,0.013854,-0.035060,0.755613,-1.045912,-0.320045,0.023317,-0.452610,0.398581,0.227065,-0.100496,-0.121162,-0.823270,0.414165,0.185621,-0.021710,-0.632752,0.311994,-0.154682,-0.279880,-0.657207,0.984321,0.376930,0.590318,1.255930,0.025482,-0.858303,-0.637616,-0.175130,-0.694191,-0.983309,1.931219,-0.112724,1.643992,-0.123080,0.042566,-0.650879,-0.217463,-0.731117,-1.673852,-1.341132,-0.606372,0.566607,0.302843,-0.121294,0.203366,-1.171941,-1.062160
0.647276,1.213024,-0.158614,0.655463,0.793126,2.039981,0.756998,-0.233263,1.019290,1.219732,0.652771,-0.188470,-0.979882,-1.084950,0.745139,-0.632292,-0.364790,0.001114,-0.741559,-0.881246,-0.056059,-0.605208,-1.106954,0.430673,-1.126841,0.425981,0.901149,0.587628,-0.147742,-1.867169,-1.201384,-0.046552,0.395172,-0.243262,0.982919,-0.364339,1.113266,-0.023673,-0.082580,-0.859695,0.586572,-0.042200,-1.249313,-0.279267,-0.132789,-0.934243,-1.924627,-0.571367,-0.902518,-0.019796,-0.434816,-1.324151,-0.485135,-1.352937,-0.130329,0.157407,-0.081992,0.741894,-0.951226,1.934310,-0.754121,-0.159706,1.360212,1.114636,-0.264225,-0.710448,-0.373985,0.884716,0.884226,0.439847,0.812831,0.105514,0.543613,-0.315535,-1.434616,-1.382807,0.036817,-1.218017,-0.362242,0.580086,0.885426,-1.159681,-1.244677,-0.463358,0.873223,0.549728,-0.318696,0.162359,-0.121557,0.488287,-0.518675,1.697240,1.095969,-0.011350,-0.922535,0.741148,1.156228,-1.721559,-0.492189,-1.879733,-0.041403
1.443577,1.041830,-0.241764,0.356505,1.506978,0.064918,-0.536222,0.106902,-0.265873,-1.381325,-2.032925,-1.005479,-0.378290,0.896950,-0.379858,-0.232583,0.856633,-0.452392,1.746672,-0.220215,-0.774962,-0.438253,-0.420378,-0.621442,-0.728384,0.395569,-0.554937,-1.732803,0.688906,-0.749250,0.923159,-0.724145,-0.675573,0.042108,-0.093092,0.356416,0.045286,-0.663956,-0.197631,1.111902,-0.302106,0.602976,0.920847,-1.023345,-0.401045,0.079588,-1.618504,-0.103010,0.242128,0.743156,-0.075001,-0.193693,-0.742387,-0.375381,-0.177191,-0.317410,-1.071717,1.492887,-0.005910,1.208989,0.376659,-0.012207,0.016094,0.426905,0.129109,0.244604,1.344622,0.585957,-1.561097,0.994719,0.259628,-0.078743,0.707378,-2.102601,0.027834,-1.141455,-0.414913,-0.343771,0.033043,0.233500,0.081584,1.137897,0.905707,-0.749956,1.671680,0.397396,-1.318352,0.425153,-1.262724,0.274504,1.566012,1.114718,-0.166116,0.392223,1.062955,1.133399,0.107827,-0.882417,-0.375062,-0.131676,-1.888592
0.478652,0.427185,-0.204876,0.346028,-0.461650,-1.463380,0.523919,0.414699,-1.591450,0.063722,0.861991,-1.899743,-1.019784,0.299710,-0.648987,1.181977,1.007300,-0.111283,-0.477080,-0.162511,-0.951514,-1.894707,-0.273164,0.398461,1.182821,-0.546800,-0.312777,0.268582,-0.447448,-0.076576,0.429593,-0.333432,0.859779,-1.258645,2.325231,-0.239175,-0.814744,-0.915571,0.185836,-0.418994,-0.635193,-0.897617,-0.302390,-0.614133,-0.028644,0.161861,-0.704814,0.140901,-1.270539,0.165738,0.215037,0.888697,0.132059,0.562583,-0.440721,-1.452494,-0.263103,0.683965,2.559537,1.822738,0.471863,-0.378777,1.432613,0.905564,-0.645433,-0.646989,-0.036633,-0.450973,-1.726803,-0.670773,0.057350,0.023053,0.820296,0.255382,0.101777,1.194690,0.056112,0.314982,0.307015,0.262564,1.482624,-0.914734,-0.187091,-0.163234,-1.129262,-1.872328,-0.361220,-0.321984,-0.804650,-0.605015,-0.439130,1.146770,0.822650,0.474983,1.383987,-0.316243,-0.019757,1.038023,0.454372,1.739051,-2.930694
-0.153401,-0.632711,-0.158622,-1.735338,0.711962,-0.785083,1.354533,-0.206216,-0.019848,-0.223144,-0.405484,-1.083451,-0.247407,-0.806081,-0.725446,0.485926,-0.494537,0.294211,0.250414,-0.508775,0.832064,0.480268,-0.088246,-0.011121,0.081286,-0.075960,0.212974,0.377773,0.016740,0.308292,1.194822,-0.296729,0.557190,0.257134,0.502188,-0.404807,0.055025,0.160459,-1.721220,0.449797,-0.336604,-0.515223,-0.170520,0.149516,0.226890,-0.047593,1.057302,0.084153,-0.398524,0.592812,0.420635,0.400725,-0.462311,-0.577835,-0.376799,-1.532406,-0.065545,-0.261437,-1.035043,0.360745,-0.246389,1.399265,-0.138356,-0.008576,0.272298,0.572741,-0.643401,0.382483,0.494537,-0.983574,-0.472729,-0.445402,-1.077663,-0.669895,-0.437834,0.420833,0.076195,0.994839,-0.370035,0.636902,-0.312806,0.349259,-1.085569,0.337846,0.075254,0.079564,0.024064,-0.994368,0.144856,0.389761,0.356362,0.387295,0.172556,-0.111713,0.193917,-0.607232,-0.344252,-1.207939,0.447465,0.517863,-1.806557
-0.238643,-1.247219,-0.329843,-0.195880,-0.348259,1.123072,-0.427640,0.960395,-0.168304,0.013909,-0.374081,0.084441,-0.169285,1.306481,-0.661725,-0.047315,-0.180837,-0.235906,-0.057320,0.272329,0.006752,-0.022017,0.787113,-0.160478,0.130879,0.063112,-0.357517,0.485490,0.823585,-0.131217,-0.285520,-0.280697,-2.054284,0.282633,-0.207704,-0.966084,-0.309640,-0.452722,-0.538440,-0.213981,-0.234550,0.096470,0.172189,0.584903,0.353092,0.312855,-0.558686,0.707700,0.971526,-0.191696,-0.157542,-0.348403,-0.259958,0.193166,0.246249,-0.576853,0.405957,-0.256706,-0.197257,-1.046461,-1.026903,-1.276762,0.178640,-0.013035,1.036580,-0.645197,1.284117,0.304620,-0.063768,0.752171,0.302383,-0.212729,0.108714,-0.702558,0.235374,-0.065152,-0.229862,0.816477,0.033436,0.142510,-0.897740,0.386067,-1.807864,-1.113804,-0.165682,0.115625,0.000687,-0.402863,-0.113941,-0.506484,0.306352,-0.359375,-0.129312,0.382321,-0.185885,-0.405524,0.246254,-0.284466,0.352104,-1.358506,1.334737
0.252251,-0.099822,-0.150899,-0.361625,-0.334035,-0.025096,-0.298608,-0.373689,-0.214639,0.166540,-0.390713,-0.548045,0.272476,-0.142253,0.254829,0.242181,-0.314905,-0.054399,-0.362239,0.313578,-0.252561,0.152278,-0.469111,-0.272412,-0.039262,-0.429089,-0.380863,0.435852,0.311609,-0.109195,0.287359,-0.026051,-0.109111,0.353664,-0.073444,-0.430023,0.069353,-0.325770,-0.574196,0.344142,-0.429868,0.175782,0.039186,-0.097061,-0.113300,-0.469816,-0.121406,-0.184864,-0.013431,0.174028,-0.243033,-0.367481,0.096425,-0.291213,-0.389502,-0.511796,-0.042131,-0.010392,-0.165627,0.000139,-0.189752,-0.376838,0.022019,-0.463958,-0.216320,-0.452526,0.203573,-0.470848,-0.035936,0.300316,0.130496,-0.294305,0.067631,0.482768,-0.131001,-0.166311,0.140745,0.324861,-0.444543,0.432175,-0.447058,0.396001,-0.019604,0.379140,0.025371,0.415738,0.112262,-0.336285,0.482391,0.191662,-0.171618,-0.341528,-0.341423,0.159902,-0.356346,0.253682,0.135289,-0.392025,-0.241691,0.129232,-0.027273
0.376580,-0.322797,-1.548430,-1.346066,-0.300341,-1.240132,-0.219063,0.062534,0.049054,0.360264,-0.136433,-0.539442,-1.191699,-1.352915,-0.207183,0.582509,0.368770,0.099591,0.369323,-0.551948,-1.485087,0.104161,-0.282999,0.635107,-0.074664,-0.245354,0.211670,0.097309,0.135770,-0.157867,0.339390,0.465689,-0.563625,-0.447394,0.793353,0.973663,0.486737,0.124238,-0.009567,-0.164052,-0.411283,0.784307,2.163621,-0.103476,-0.342366,0.364589,0.074400,-0.063629,-0.680781,0.112007,0.125661,-0.392915,-0.066272,-0.491326,-0.520999,-0.174213,-0.451016,0.382748,-1.399752,-1.232679,0.014683,0.530800,0.014634,0.247577,0.120158,-0.735710,-0.581866,0.452455,-0.006851,1.062050,-0.528482,-0.282098,-1.237230,0.030714,-0.054582,0.291090,-0.158508,-0.131424,0.189467,0.592442,-1.362605,-0.026597,-1.045168,-0.491590,-0.395218,0.091993,-0.378535,0.519051,0.123737,-0.396843,-0.016129,-0.265617,0.682313,-0.444456,-0.282966,0.831225,-0.090739,0.621185,0.212154,-1.279101,-0.025239
-0.182302,-0.172595,0.063848,-0.374178,-0.168906,1.081884,0.224972,-0.208223,1.482761,-0.195974,-0.323328,-0.326599,-0.688789,-0.703236,0.754150,0.342070,-0.134510,-0.368068,-0.125019,1.478322,-0.837452,-0.182761,-1.132311,-1.004661,-0.001572,-0.502482,0.330397,0.064837,-0.465964,-0.333879,-0.237067,0.350929,-0.453043,-0.319971,-0.248396,0.496543,-0.169637,-0.301386,-0.594932,-0.237968,0.439665,0.015570,-1.027452,0.654246,0.403256,-0.245170,-0.055816,-0.250726,-0.093025,-0.366056,-0.425878,0.169256,-0.190970,-0.086285,-0.764350,-0.969406,0.088946,-0.433439,-0.407254,-0.446650,-0.332458,-0.493322,0.251061,-0.233421,0.186177,-0.966597,0.181608,-0.188142,-0.446135,0.426890,0.273662,0.028886,0.261240,-0.037128,0.473266,-0.424284,-0.791230,-1.633480,-0.327537,-0.631770,1.176675,-0.091641,-0.088216,0.171686,0.246949,0.432188,0.157308,-0.442664,-0.261711,-0.579341,0.490651,-1.299570,0.513214,0.161275,-0.475694,0.641466,-0.228473,0.071057,0.049760,-0.221196,-1.400033
-0.004720,-1.199751,-0.477585,-0.483473,-0.065766,0.276439,-0.750228,-0.082166,-2.334384,0.000778,0.442717,-0.080603,-1.038874,0.202147,-0.655132,0.162973,0.055895,0.336048,0.392902,-0.095405,-0.199556,-0.491450,-0.117513,0.872844,0.389828,0.271559,-2.101385,0.323682,0.190840,-0.506038,0.047285,-0.177042,-1.838062,-0.201888,1.658092,-0.319506,-0.198856,0.454849,-0.123634,-0.420591,0.053179,0.767659,-1.091257,0.451969,-0.028494,0.345430,0.261098,0.114061,-1.640690,1.039884,-0.295335,0.491153,0.186032,0.259954,-0.911895,-0.465642,-0.214775,0.147694,-0.050712,-0.569963,-0.249819,-0.075747,0.050768,-0.342943,1.274287,1.028406,0.909083,0.810164,0.470092,-0.947519,-1.989618,-0.396695,-0.285121,-0.718573,0.051653,-0.085276,0.065062,-0.545411,-0.498738,-1.627470,0.426875,-0.155182,-0.698356,0.211885,0.104312,-0.309040,0.073717,0.812256,0.290002,0.273003,-0.116602,0.134246,0.496089,-0.468139,0.062162,-0.759571,-0.248459,-1.785496,-0.157430,-0.247430,1.601993
-0.450530,-0.221089,-0.080914,0.601242,-0.451586,0.327996,-0.273119,-0.006092,-0.851986,-1.698760,0.229179,-0.337949,-1.326387,0.667371,-0.076153,0.433386,-0.028184,0.018499,-0.194275,1.276144,-0.151858,-1.069834,-0.042329,-0.635326,0.349879,0.625186,-0.653808,0.497226,0.466457,-0.182170,0.093790,-0.442467,-1.446031,0.457108,0.058740,-0.307782,-0.004366,0.481748,1.063343,0.439695,-0.444792,-0.700606,0.771755,-2.000478,0.415544,0.466643,-0.642766,1.078870,0.461346,0.254982,0.028401,0.861979,0.037576,-1.259267,1.816143,-0.370831,0.460870,-0.160146,0.014900,1.263803,-0.565496,-1.791939,0.169179,-0.087011,0.178543,-0.397516,0.218229,0.387430,-0.201132,-0.268934,0.518936,0.206900,0.886717,-0.896139,0.031327,0.336119,-0.989999,0.068672,-0.015053,0.128682,-0.506083,-0.034869,0.596259,-1.516784,-0.091131,-0.498578,0.109699,-0.391091,-0.084887,0.581449,0.133200,0.487896,-0.580007,-0.341090,-0.386268,-0.559539,-0.128748,-1.067318,0.305808,0.207572,-0.822576
0.135121,-0.619721,0.337520,-1.234425,1.148793,-0.335650,0.147733,0.976627,-0.914420,-0.566076,0.014237,-1.443473,0.637915,-0.538574,-0.211327,-0.695613,-0.323634,0.164144,-0.255425,0.462638,0.464676,-0.582968,-0.144437,-0.020616,-0.331904,0.535591,0.294286,0.287317,-0.077408,-0.041449,0.041196,-0.282190,-0.127397,0.390042,-0.532436,-0.518766,0.205666,-0.207450,-0.667567,0.124195,-0.002670,-0.952774,-1.209224,-0.086468,0.458373,0.392392,-0.245042,0.937929,-0.410466,-0.150575,-0.408818,-0.793739,0.040946,-0.751501,0.344914,-0.060390,0.481964,0.456297,-0.893314,1.288426,0.330821,-0.345410,-0.371975,-0.373501,-0.239769,-0.403362,-0.569816,0.017673,0.462737,-0.009614,0.214436,0.368313,-0.183348,0.531823,-0.154317,0.053331,-0.680251,0.295425,-0.070010,0.535090,-0.186495,-0.261737,0.702776,-0.691679,-0.430808,-0.249840,0.075426,-0.375749,0.300134,-0.996974,0.362479,0.016543,-0.202655,-0.345485,0.347005,-1.094426,-0.048389,-0.413799,0.316614,-0.450098,-0.334290
-0.395766,-0.181769,-0.316140,-0.087174,-0.077961,0.611282,-0.337107,-0.840662,0.342568,-0.194786,-0.468413,-0.144171,0.727548,-1.145029,0.927492,0.043416,-0.035051,-0.101802,-0.342756,-0.082378,-0.385998,1.001894,-1.235102,-0.125458,-0.184927,0.087512,0.121802,-0.018063,0.677137,0.261664,-0.401433,0.641674,-0.660334,-0.487965,0.435967,0.060823,0.314460,0.353684,0.541164,0.166738,0.397946,-0.229980,0.892533,-0.063800,0.240097,0.342533,1.502000,-0.019712,0.903391,-0.242726,-0.449980,-1.245868,0.356666,-0.378212,0.172938,-0.511458,-0.257172,0.029649,-0.049766,0.035512,0.324377,-2.230842,0.209128,-0.246646,0.876841,-0.455246,-0.698616,-0.700880,0.373623,-0.586056,0.560302,-0.390255,0.590472,-0.146821,-0.051500,-0.437919,-1.463884,-2.201910,0.624424,0.075026,0.010397,0.451375,0.709393,-0.143624,0.068558,0.155626,0.169668,-0.726345,-0.439268,0.125727,0.261356,-0.513342,0.899868,-0.242302,-0.233963,0.502790,0.587837,1.509712,-0.265819,-1.240034,-0.100840
0.353682,0.189730,0.021206,0.326348,-0.639815,0.642502,-0.196116,0.003120,-0.259797,0.784928,-0.056597,0.603205,0.394273,-0.747557,-0.322403,-1.175880,0.114643,0.225812,0.469490,-1.086567,0.164269,-0.902676,-0.516264,-0.396732,0.478912,0.254861,-0.166440,0.255737,0.488595,-0.081111,0.020822,0.502853,-0.395016,-0.188277,-0.507203,-0.543638,-0.006633,-0.284266,-0.015236,-0.425321,-0.200186,0.183387,-0.878632,-0.073995,-0.455555,0.023437,-0.586986,-0.419010,-0.686007,-0.333524,-0.210395,-0.669045,-0.026766,-0.825554,-0.414707,-0.301585,0.157747,0.037248,-0.683200,-1.601693,-0.186434,0.100912,-0.107013,-0.056413,1.100731,-0.398762,-0.382827,-0.133350,-0.125507,-0.115958,-0.151043,0.282067,-0.500038,0.367788,0.083911,-0.257724,-0.632825,-0.896092,0.305873,0.885131,-0.022381,-0.029953,1.175704,-1.609509,-0.454010,0.125256,-0.224724,-0.747044,0.441801,0.582741,0.090637,0.101780,0.283205,0.017563,0.344195,0.124490,0.129163,0.792506,-0.092168,-0.210158,3.287747
-0.375159,-0.019304,0.207252,-0.503900,-1.067314,-0.086463,-0.270313,0.473564,0.510141,-0.565610,-0.428312,1.020032,0.025625,-0.235598,0.284444,-0.427212,0.452666,-0.047261,-0.464326,-0.357618,0.771802,-1.127336,0.254940,0.063637,0.444212,-0.885437,1.525111,0.240623,-0.169608,0.239650,0.358383,-0.122672,-1.075015,0.099647,0.525359,-0.649032,-0.131019,0.415433,-0.146353,-0.227103,-0.070788,-0.395617,-0.044061,-0.163368,0.046353,-0.257360,-0.086751,0.943343,-0.574438,0.163523,-0.315466,-1.776742,0.220373,0.212907,-0.370170,0.146362,0.338080,0.344569,0.482523,1.546902,-0.343271,-0.509972,0.159230,-0.043534,-0.209336,0.264567,-0.319764,-0.294507,0.348415,-0.466205,0.392624,-0.145985,-1.443126,0.273233,-0.398495,-0.422654,0.182614,0.447011,0.029830,0.699676,-1.673085,0.346579,-1.112741,-0.525315,-0.323277,0.164300,0.205010,-0.485550,-0.418973,0.306639,-0.008995,0.509373,0.340337,-0.488403,-0.355149,0.493223,0.332681,0.788964,-0.240019,0.288505,0.763440
-0.031021,0.098461,0.637967,-0.137905,-1.050269,0.181305,-0.998693,-1.498490,-0.066433,0.215504,0.329585,0.982574,0.854899,-1.028066,0.148852,-1.157511,0.076922,0.175437,-0.184521,0.267311,-0.434466,0.919028,-0.036566,0.661122,0.365169,-0.472691,1.047948,-0.250214,-0.083186,-0.346683,0.073960,-0.441688,-0.982651,-0.431175,-0.425490,-0.134946,0.191824,-0.296881,-0.089318,0.325465,-0.401975,-0.749804,-0.349114,0.754413,-0.305551,-0.270566,-1.555212,-0.480246,0.190276,0.433272,-0.182117,0.036792,0.307571,0.678677,-0.498571,-0.204970,-0.057715,0.392666,0.303420,-1.780290,-0.069969,0.271774,0.109729,-0.308311,0.822711,0.226462,-0.556143,0.180864,0.465423,0.149909,-1.503107,-0.464965,-0.510671,-0.090616,0.011216,-0.073599,0.684611,0.248714,-0.100939,-0.511078,-0.511073,0.301136,-2.160375,0.234567,0.407462,0.014720,-0.058765,0.448393,0.003098,-0.925020,-0.042317,-0.906966,-0.379363,-0.237114,0.045521,0.059145,0.368857,-0.287394,-0.280131,-0.468483,1.430277
0.047627,-1.469837,0.375744,0.879174,-1.088121,-0.602770,-1.359160,-0.848671,-2.474616,-0.133379,-0.073809,0.049577,0.162814,0.003743,0.034807,-1.018857,-0.209220,0.224732,0.360375,0.226486,0.330633,0.826788,0.078637,0.026610,-0.409482,0.442833,0.100144,-0.335835,0.129744,0.466526,-1.054348,0.078636,0.578830,-0.007567,-0.489942,1.084207,-0.272876,-0.052051,0.159012,0.485565,-0.265557,0.048825,-0.454661,-0.120433,-0.431241,-0.450785,-0.904788,-0.862816,0.474461,-0.781201,0.047892,1.020837,-0.208842,0.788907,-0.597733,0.783313,-0.109929,-0.043077,0.239051,-2.328627,0.968688,-0.113028,0.402646,0.355181,0.546622,0.521348,0.656548,-0.491709,-0.406583,-0.850641,-1.313780,0.310511,0.432667,-1.029726,0.192862,-0.184099,-0.028264,-0.854137,0.361208,-0.517107,0.019867,0.481379,0.239968,-0.177852,-0.120404,0.473379,-0.139088,-0.623637,0.156331,0.764227,0.412284,-0.083288,0.165183,-0.353847,0.235545,0.106948,0.053324,-1.699060,0.259493,0.416049,-0.417741
0.014177,-0.178373,-0.805140,0.387134,-1.044793,0.546027,0.034615,0.634589,-0.536548,-1.062466,-0.369533,-0.893066,-0.025427,0.645146,0.140558,0.619942,-0.115314,-0.360906,-0.195128,-0.466568,0.209006,0.684390,-0.110162,-0.051509,0.132740,-0.227583,-0.720426,-0.462775,-0.682938,-0.454836,-0.566941,-1.178510,0.201419,0.300929,0.128467,1.451896,0.096848,-0.440976,-0.026620,0.274163,0.454619,0.815056,0.291352,0.659443,0.144644,-0.389046,-0.050171,-0.987393,0.274768,1.104402,0.272524,0.981603,-0.082417,0.085262,-0.122782,-0.500114,-0.287792,-0.217521,0.393413,-0.505200,-0.217353,-0.311892,0.414457,-0.189156,-0.711610,0.692284,1.636827,0.446417,-0.013352,-0.833144,-1.069154,0.000809,1.019469,-1.298781,0.020554,0.307962,0.647384,-0.340336,-1.437901,-1.363379,0.822002,0.164800,-0.385788,-0.532298,0.072019,-0.114831,-0.396908,-1.108163,0.121540,-0.581710,0.542975,0.476725,-0.170750,0.072802,-0.235334,-1.775083,0.396008,-1.704619,-0.510114,0.437668,0.551646
0.123808,-0.437894,0.016383,0.141143,-0.731194,-1.307732,-1.059065,-1.289638,0.453052,-0.213279,0.220084,0.634759,0.694052,-0.046072,0.512009,-0.134200,0.409726,0.085107,-0.155644,-1.165108,-0.109067,0.412865,0.824257,-0.162729,-0.198233,-0.262955,1.258429,-0.252707,-0.475706,-0.225321,-1.235184,-0.459658,-2.421367,-0.098347,-0.864908,1.325492,0.176421,0.169613,-0.008673,0.435179,-0.268242,-1.108322,-0.396002,0.570184,0.364537,-0.225852,-1.106222,-0.148152,-0.071607,-1.321003,-0.021311,0.066079,-0.205181,-0.249641,0.019229,-1.046678,0.006861,0.318537,0.683680,0.066651,-0.057990,0.344089,0.236229,-0.151569,0.983677,-0.192417,-1.014851,-1.092885,0.331965,0.437486,-0.164647,-0.036668,-0.544360,-0.263937,0.104663,-0.340389,-0.247106,0.479901,0.017863,-0.301071,-0.137195,0.438681,-1.487170,-1.304106,0.481933,0.476432,-0.285759,-0.067166,0.401975,-0.442054,-0.220270,-0.574148,0.851691,0.100146,-0.669819,-1.027494,-0.066871,0.102310,0.086869,0.086576,5.558948
0.420306,1.189206,-0.395685,-0.529835,0.904614,-0.703106,-0.520767,-1.157196,-0.199568,0.888120,0.288842,1.428682,-0.903630,-0.526035,-1.506166,-1.420202,0.374966,0.053691,0.266239,-1.431972,0.146500,-0.186435,-0.766122,-0.447717,-0.444304,-0.700689,-0.366331,0.101624,-0.071873,0.330606,-0.014593,1.471499,-0.333430,0.260298,0.965185,-1.349582,-0.468534,0.092127,0.134248,-0.128803,-0.389676,-0.510535,0.192713,0.646234,-0.261807,0.005179,-0.660838,-1.177290,0.223902,-0.654343,-0.517440,-0.340111,-0.036237,-1.275477,0.725735,-1.640950,0.119441,0.468688,0.075883,0.032074,-0.547156,0.641530,0.112873,0.157666,0.383466,-0.427255,-0.732102,0.734209,-0.349544,0.236282,-0.096616,0.224967,-0.422315,0.915245,-0.404355,-0.189315,-2.148647,0.603391,0.586167,-0.529913,0.190670,0.326697,-0.018461,0.123792,0.502980,0.447943,0.343745,-1.817940,0.180563,0.065084,-0.205751,0.037031,-0.292822,-0.013474,-0.585946,-1.118456,-0.406504,0.562865,-0.096028,0.962288,1.022141
0.433561,-0.327873,0.654267,-0.681924,1.378015,-0.701602,0.450998,0.980753,-0.330493,1.347238,0.235496,-0.685302,-1.154542,-0.821350,0.353514,-0.350811,0.476867,-0.347682,0.016648,-0.679392,0.152410,-1.164133,-0.220360,0.082990,-0.432951,-1.215370,-0.487880,0.183111,0.297175,0.235326,0.254333,0.622151,-0.116364,0.004990,0.508726,0.369133,-0.359269,0.336299,-0.771824,-0.192465,0.275536,-0.232878,-1.202239,-1.540648,0.420564,0.354305,-0.332744,0.370706,-0.201657,0.295320,-0.102766,-0.731869,-0.116237,-0.058038,-0.051566,-0.294006,0.073809,-0.145650,-0.279816,1.027519,-0.583832,0.808792,0.216239,-0.182545,0.118541,-1.218319,-1.279032,-1.073509,0.344142,0.443136,0.376149,-0.256157,-1.095635,-0.015050,0.058367,0.487671,0.698750,0.840010,0.001088,0.576035,0.225626,0.346974,-0.807987,-0.691172,0.300962,0.198270,0.138325,-0.480262,0.041276,-1.185281,-0.316091,-0.575955,-0.001024,0.251762,0.305331,-0.249971,-0.187125,0.812674,-0.335902,1.238624,-0.686421
-0.106525,0.789725,-0.128168,-0.217249,-0.710556,-0.110995,-0.066881,1.432808,-1.055454,-1.163884,0.439970,0.810503,1.324185,-1.145749,0.610686,-1.140341,-0.177602,-0.379940,0.365627,0.298637,-0.086352,-0.323841,-0.258795,-0.301684,-0.455046,-0.124157,0.367120,-0.276421,-0.110097,0.752036,0.433445,0.309730,-0.274685,-0.097400,-0.727362,-0.774892,0.407004,0.258690,-0.915128,-0.239158,-0.416257,-1.402649,-0.165238,-0.413432,-0.236686,0.066301,-1.163800,0.406874,0.701944,-0.374223,-0.127347,0.244801,-0.165242,0.100072,-0.929124,0.083055,-0.076529,0.356441,-0.204571,0.375569,-0.402124,0.038073,-0.071581,0.052906,-1.312286,-0.790455,-0.020263,-0.323991,-0.321711,0.192668,-0.593378,-0.478484,-0.829374,0.410481,-0.133473,0.392880,-0.837301,1.077174,0.717563,1.073279,-0.588793,0.074490,-0.852900,0.508147,0.114823,-0.299890,0.490051,-1.315150,0.201041,-0.810733,-0.056825,-0.273159,0.110706,-0.305811,0.426747,0.097145,-0.436854,1.042178,-0.356289,0.543042,-1.186614
-0.283613,-0.893133,0.366061,0.164690,-0.428048,0.284963,0.145794,-0.561711,-0.020832,-0.672655,-0.316980,-1.311935,-1.547624,-1.305428,0.346752,0.682585,0.400021,0.226343,-0.074154,0.773431,-0.635356,0.576891,0.760197,0.316852,-0.419340,-0.586212,1.168823,-0.396360,0.643375,0.237974,-0.149075,-0.381450,0.373285,-0.500419,-0.493029,-0.201075,0.482042,-0.075716,-0.789194,-0.372982,-0.372036,-0.278647,-0.214727,0.629937,-0.340888,0.494413,0.738249,0.379879,-0.511909,-0.193163,-0.101983,-0.263586,0.390641,0.503769,-0.516143,-0.437936,0.065819,-0.129475,0.218679,-0.607384,-0.171326,-0.088587,-0.441588,0.018120,-0.246248,0.352377,-0.299497,0.258133,-0.158223,0.122538,0.156168,-0.051469,-1.324670,0.347820,0.342952,0.311511,0.573570,-0.554573,0.245882,-0.849788,1.347906,-0.115358,-1.947496,1.360649,0.316409,-0.025326,0.374447,0.011641,0.001297,0.127176,-0.204464,-0.602115,0.184063,0.118793,-0.096971,1.105048,-0.045243,-1.372162,-0.268135,-0.184987,-2.210506
0.110705,0.312979,-0.048233,-0.054672,0.277226,-0.111424,-0.276988,-0.045553,0.306556,0.300937,-0.084704,-0.275244,0.114363,-0.967517,-0.762958,0.416946,-0.379269,0.000471,-0.362909,-0.372318,0.034171,-0.331210,-0.338217,-0.098063,0.049120,-0.426901,-0.170833,0.389270,0.054160,-0.376744,0.453178,0.117743,-0.261917,0.263152,-0.191240,0.289758,-0.337672,-0.082110,0.088834,0.310511,0.447722,-0.345452,-0.485653,-0.400066,0.398975,0.493103,0.404468,-0.658898,0.435278,0.349952,-0.187570,0.275061,0.387020,-0.114035,-0.603510,-0.426012,-0.179617,-0.225547,-0.543421,-0.630270,0.409427,-0.369936,0.368221,-0.361441,0.216074,-0.171159,0.341043,-0.489062,0.118488,-0.304101,0.202544,-0.402219,-0.342140,-0.028474,0.241813,-0.312762,-0.417176,-0.338456,0.190442,-0.190183,-0.316130,0.070080,-0.633999,-0.304831,0.419668,0.161079,-0.035264,-0.847963,-0.254143,0.276142,-0.394607,-0.335001,0.331984,-0.309687,-0.155680,0.519510,-0.122495,0.525190,-0.419833,-0.392907,-0.029686
-0.377783,-1.268259,0.622220,-0.976676,-1.457185,0.878045,-0.788685,0.623142,-0.527631,0.317386,0.241966,1.505938,1.387089,0.241903,1.387610,-0.857398,0.208701,0.222668,0.167594,-0.862617,-0.430184,0.230226,0.068532,0.105754,-0.034532,-0.181862,-0.586501,0.472072,0.236911,-0.194032,-0.608634,-0.403638,-1.898673,0.456338,0.002036,1.744195,-0.139872,-0.398351,-0.461102,-0.467406,0.054674,0.096858,1.171534,-0.377212,-0.211506,0.219565,-0.622771,-1.867626,-1.228689,-0.815010,0.268497,0.393201,0.233565,0.054309,0.504616,0.296604,-0.174233,-0.297998,0.593827,-0.927182,0.598275,0.030371,0.340999,0.154421,0.992254,-0.311240,0.597843,-0.449369,-0.308435,0.565491,-0.402420,-0.272057,1.292172,-0.504370,-0.031419,0.488889,0.123048,0.077120,-0.261587,-1.111105,-0.446979,0.479682,0.488923,0.263992,-0.466530,-0.214131,-0.222831,0.515536,-0.375607,0.157814,0.005664,-0.423215,0.605117,-0.363552,-0.262632,-0.393945,0.183174,-0.053670,-0.002943,0.985874,-2.499789
-0.222681,-0.367428,0.401703,-1.965514,-0.364284,-0.106248,0.017281,-0.186006,-0.272914,-1.040874,-0.031693,-1.113189,-1.517578,-0.466320,-0.582518,0.346879,-0.138234,0.444182,-0.451809,0.308565,0.351438,-0.887337,-0.392908,-0.387275,-0.393643,-1.076427,-0.441477,0.269860,0.144572,-0.276282,-0.401564,-0.088926,0.146263,0.461661,1.022301,-0.799114,-0.326504,0.160279,-0.521830,0.192831,-0.234794,-0.582365,-0.365744,0.087250,-0.376022,-0.341609,-1.514531,-0.956209,-0.475622,1.349497,-0.335505,-0.755877,0.183976,-0.537710,0.793141,0.264363,0.080495,-0.432890,-0.506210,1.148614,0.452193,1.321948,0.211844,0.141391,-0.057725,-0.333580,-0.806924,-0.342612,0.148854,-1.496831,-1.296311,-0.002243,-0.982870,-1.292163,-0.205130,-0.196801,0.217605,0.610123,0.281536,0.141845,-1.074493,0.423104,-1.164586,0.454274,-0.356020,0.202412,0.147938,-1.524271,-0.492889,0.490494,0.024946,0.450043,-0.655268,-0.274407,0.053986,0.194820,0.405209,0.721980,-0.440730,-0.538285,-0.799345
0.412291,0.819230,0.012086,0.903610,-0.061812,0.133377,-0.405539,-0.313655,0.301119,2.162513,-0.160329,0.902769,-0.050841,-1.336511,-1.109673,-0.337779,-0.350520,-0.302345,0.100875,-0.021766,0.134043,0.287156,0.218526,0.405583,-0.051103,-0.124992,0.086244,0.143527,0.246001,-0.271300,0.762288,-0.170014,-0.565901,0.203325,0.237834,-1.009784,-0.399472,0.367487,0.098376,0.300531,0.349330,0.758370,-0.122450,1.164410,0.134879,-0.367031,-1.031181,-1.370496,0.658499,1.914960,-0.185540,-0.450468,0.315582,-0.351211,-0.602204,-0.430543,-0.308383,-0.169240,-0.251738,-1.295641,0.005113,0.650972,-0.255119,-0.026729,0.684029,-0.874410,-0.394863,0.032371,-0.411130,-1.636051,0.053986,0.025529,-0.410111,-0.703797,-0.034501,-0.271709,0.201616,-0.683457,0.283226,-1.138102,-0.131916,0.165200,-1.624197,-1.451482,0.190839,0.446974,0.437163,-1.463817,0.238945,-0.883988,0.097359,-0.015211,-0.094355,0.446623,0.278357,-0.190460,-0.475209,-0.683695,0.331026,-0.091633,-0.667057
0.258379,-0.217164,0.196893,-0.822283,-1.581831,0.023494,-0.579356,-0.432447,-0.069647,0.471070,0.066118,-0.526663,-2.061484,-0.272071,-0.704842,-0.429590,-0.447172,-0.131093,0.070762,0.160994,-0.735304,-0.353883,0.260836,0.642050,0.320582,-2.076714,0.044567,-0.015267,-0.083034,-0.466755,0.434694,0.105896,-0.440896,-0.248380,0.418617,-0.227862,0.453884,0.459062,0.001884,0.008652,0.019547,-0.681459,0.700820,0.655946,-0.040186,-0.101806,-0.297127,-1.240330,-0.202562,-0.535828,-0.445607,-1.068060,0.092517,0.026984,-0.777474,0.259471,-0.354675,-0.443724,-0.259555,-0.442246,-1.047578,0.845495,-0.330470,-0.431432,0.926441,-0.780895,0.385908,0.143962,0.309290,-0.654729,-1.596344,0.477050,0.414852,0.683570,-0.003159,-0.198568,0.115408,-0.936405,0.437371,-0.925080,0.211868,0.355036,-0.050064,1.401713,-0.170927,-0.310016,0.388028,0.450487,-0.401486,-0.242337,-0.295102,-1.302622,0.412753,-0.494751,-0.112413,0.482120,0.152397,1.151547,0.034073,0.059593,-0.402848
-0.470419,0.543192,-0.653815,-0.906286,-0.844361,-0.522430,0.168273,-0.715939,0.976528,-0.746286,0.390072,0.799509,-0.397584,-0.051499,0.438432,0.759099,0.021195,0.158345,-0.256585,-0.108017,0.062801,1.134932,-0.547266,-0.107200,-0.076769,-1.340706,-0.149582,-0.223325,-0.169433,-0.180637,-0.386937,-0.627424,-1.299123,0.199979,0.542527,-1.023487,0.311457,0.419265,0.156151,0.401517,-0.468352,-0.930492,0.520831,1.074380,-0.325502,-0.149922,-0.876174,-0.580186,0.303510,0.813363,0.264120,-0.417231,0.466250,-1.790835,1.321847,-0.895050,0.066925,0.050707,0.154480,1.360297,-0.609067,0.709041,-0.057024,-0.084694,0.214338,0.867246,0.252726,-0.080478,0.098254,-0.304119,-0.599937,-0.121204,0.902672,-0.952801,0.298181,0.406186,-0.958172,-0.953296,-0.002769,-0.867817,0.192686,-0.406517,-0.156762,-0.250593,0.048733,0.015938,-0.488952,-0.831827,0.270196,0.129722,0.332477,-0.086002,0.004058,-0.396817,0.374605,0.272499,-0.375676,1.166424,-0.128531,-1.186933,-3.397133
0.437292,1.403775,0.241179,0.787017,-0.200913,-0.340713,0.306234,0.116683,-1.559381,0.389722,0.333766,1.006975,0.301542,-1.213231,0.258113,-2.159388,-0.353236,-0.189437,0.095389,-0.664670,-0.135390,-0.357156,-0.155141,-0.277902,-0.284387,-0.926977,0.558068,-0.163350,0.393465,0.190354,0.110912,0.569476,0.001915,-0.139271,-0.134426,0.344290,0.019761,0.200541,0.662707,0.338588,-0.444487,0.145123,0.764776,-0.759014,-0.313070,0.310083,-1.049656,-0.280636,1.361054,1.178134,0.395784,-0.654126,0.147311,-0.047339,-0.512766,-0.447052,0.434507,0.393796,-0.217082,-0.178914,0.133825,-0.661126,-0.375576,-0.322651,-0.039832,-1.070685,-0.119883,-0.259998,0.165548,-0.601749,-0.959495,-0.177908,-0.377660,-0.318442,-0.366634,-0.383435,0.127086,-0.682531,0.284911,-0.012932,-0.437512,-0.139193,0.168994,-0.944366,-0.428831,0.362708,0.421416,-1.370255,0.257347,-1.126320,-0.019182,-0.827042,0.310186,0.170797,0.211280,-0.127757,0.064538,-0.410646,-0.426830,-0.455498,-1.757266
-0.497009,0.319162,-0.305632,0.437592,1.248873,-0.435434,0.357657,-0.905232,0.930194,-0.463404,0.480255,-2.095739,-1.461092,-0.852016,-1.165716,0.632171,0.480529,-0.000751,0.088218,0.167814,-0.071658,0.092855,-0.886597,-0.492022,-0.222831,-0.652647,-0.192523,-0.304304,-0.658661,-0.350459,-0.414808,0.391830,-0.240139,-0.486772,0.424572,-0.904793,-0.050667,0.262352,-0.100842,-0.321833,-0.081866,-0.004255,-0.374603,-0.076955,-0.492523,-0.191824,0.253244,0.756832,-0.663079,-0.425410,-0.439362,-0.089947,0.441462,-1.244890,0.706352,-0.877375,0.479766,-0.132405,-1.361861,1.071652,-0.230348,-0.263911,-0.357448,-0.144810,-0.337151,-0.843035,-0.655851,-0.254223,0.306940,0.112175,0.256742,-0.205954,-0.570868,-0.675207,0.134175,-0.152455,-0.980016,0.622698,0.107150,0.486635,-0.538770,0.421256,-0.264478,0.272794,0.084631,0.388241,-0.267571,-1.982874,0.029069,0.129991,0.441619,-0.191498,-0.291577,0.334529,0.162495,0.028228,0.269130,-0.762924,0.225503,0.520493,-0.619409
-0.349766,-0.049270,0.831423,0.252596,-0.141434,-0.421157,-0.426154,0.492688,-2.152974,-0.126819,0.435606,1.450106,-0.417653,-0.904443,-0.889897,-0.206000,-0.059038,0.111327,-0.009312,-0.515623,-0.460715,0.555917,0.412317,0.807199,0.057085,-0.397107,0.336117,0.479009,-0.333217,-0.279777,-0.050869,0.463252,-1.000036,0.157986,0.512671,-1.301269,-0.195746,0.198111,0.765991,0.214438,-0.316584,0.656232,0.412661,0.693665,-0.027792,-0.297418,-2.173546,-1.268359,1.094422,0.146614,0.009898,0.550378,-0.271667,-0.809849,0.030103,0.554267,0.430306,0.491150,-0.777641,0.873202,1.087377,-0.237830,0.197012,0.053693,0.507014,0.355172,0.836266,0.802860,0.414914,-0.176042,-1.409276,0.229881,-0.390051,-0.471668,-0.059709,0.197996,-0.427238,-1.754558,0.691975,-0.371040,-0.629891,0.235722,-1.244216,-1.441971,0.243791,-0.428036,-0.468046,0.502628,-0.204855,0.752271,-0.104024,1.033781,-0.804386,0.391903,0.479103,-0.429853,0.163429,0.150109,-0.147610,-0.120044,-1.040792
-0.461449,-1.522443,-0.131090,-1.032487,0.748499,-0.535837,0.417963,0.167798,-0.648155,0.802058,-0.097949,-0.524213,-1.462962,-0.098786,0.268508,-0.509351,-0.105274,-0.088429,0.050129,0.388937,0.887336,-0.697531,-0.577752,-0.459092,-0.018693,0.548167,-0.103175,0.114205,0.186906,-0.116323,-0.275528,-0.207619,0.451292,0.412542,-1.224964,-0.055022,0.366352,-0.479250,-0.434294,0.418394,-0.139088,-0.606106,-1.059056,-1.140549,-0.197316,0.284143,-0.743386,-0.201264,-0.454232,-2.200568,-0.054565,-0.103710,0.303573,-0.354924,-0.217964,-0.432661,0.228033,0.323023,0.371066,0.018350,-1.120618,0.481909,-0.181906,0.431340,-1.612564,-0.760502,-1.922032,-0.073141,0.308649,0.072695,0.438215,0.095264,-1.199981,-0.165710,-0.386319,-0.286846,-0.750069,0.974428,-0.568388,-0.473197,0.395683,-0.061995,-0.529412,-0.296626,0.236979,0.328869,-0.141255,0.722724,-0.089251,0.351911,-0.308567,-0.842456,-0.134367,-0.369869,-0.030118,0.071650,-0.198752,-0.558453,0.331195,-0.307915,3.669803
0.343084,-0.449880,-0.647444,-0.811979,0.102043,0.955215,-0.024700,-0.367839,1.001291,1.260560,0.453887,-1.391559,-0.450152,-0.184128,-0.409147,-2.393553,-0.132466,0.154978,-0.302951,-1.002323,0.281966,0.375625,0.282014,-0.235343,-0.056475,1.022609,-0.573905,-0.473307,-0.289485,0.448108,-0.412799,0.862539,0.090047,-0.495060,0.453082,0.527103,-0.393391,0.182095,-1.079645,0.434324,0.310297,-2.463675,0.529559,0.489077,0.133833,-0.048174,0.697293,-1.150212,0.457997,-1.450366,0.529070,0.648031,-0.061147,-0.835385,-0.936549,-0.208865,-0.338364,-0.292474,0.925064,-1.335744,0.058479,-0.784811,0.269097,-0.036753,-0.041861,-0.061212,-0.369370,-0.482990,0.032640,-0.989637,-0.086771,-0.203452,0.287340,-0.114018,-0.233116,-0.128235,-0.211450,-0.407458,0.296197,-1.619448,0.546101,-0.071103,-0.454751,-1.742128,0.284767,0.240098,0.432310,-1.079025,-0.150838,-0.727861,-0.313063,0.572718,-0.106084,0.015763,0.120819,0.033663,-0.381469,0.778911,-0.131293,0.438632,0.428173
-0.387466,-1.096837,0.122188,0.956357,-0.577121,0.902927,0.624462,-0.520724,0.924778,-0.786298,-0.401364,-1.179638,-0.426293,1.290986,-0.120903,-0.598969,0.428709,-0.172715,0.356408,0.473602,-0.618546,0.247444,0.637402,1.095725,0.271569,0.642796,-0.512405,-0.013386,-0.077357,-0.042862,0.803214,-1.101143,0.767246,-0.158597,-0.796242,-0.218833,-0.300936,-0.247638,-0.763044,-0.194479,0.311060,0.715887,-0.023471,0.359567,-0.318231,-0.407429,-0.375529,0.363220,-1.431015,0.060162,0.345241,0.679980,0.390957,0.393069,0.027946,-0.318719,0.078421,0.450163,0.198371,-0.758786,-0.023133,0.290842,-0.029344,-0.135794,-1.282224,-0.468083,-1.458191,-0.191746,-0.029374,0.348104,-0.309090,-0.147359,0.238855,-0.145148,-0.059038,0.433639,0.744667,0.614346,-1.181971,0.337235,-0.355624,-0.403680,-0.668306,0.467386,0.269898,0.044631,0.360072,0.725245,0.097766,-0.586588,0.221813,-1.241881,0.562617,0.063189,0.294832,0.418334,-0.084966,-1.484423,0.487933,0.554960,-1.401858
-0.048084,0.902703,-0.534896,-1.347215,-0.803559,-0.031183,-0.284743,-0.456575,0.352265,0.523294,0.302301,0.510210,-1.361361,-0.780455,0.063016,-0.485801,-0.139485,0.081049,-0.163889,-0.833566,1.169868,0.536272,-0.658227,-0.038897,-0.114856,-2.059420,-0.087975,0.088512,-0.067444,0.008158,0.326918,-0.049165,-0.460860,-0.157502,0.443673,0.507105,-0.202258,-0.449899,0.987285,0.028123,-0.121113,-0.106787,0.432874,0.162917,-0.126224,-0.401669,-0.469715,-1.396456,-1.453046,-0.973823,-0.385032,-0.365661,0.162028,-0.200038,-1.525277,-0.343738,-0.310313,0.424131,0.215937,0.404279,0.134015,0.190939,0.209647,0.452042,-0.742171,0.059262,0.500289,0.180588,0.349696,-0.979823,-0.863432,-0.452330,-1.053911,0.409689,-0.443724,0.379610,0.329793,-0.826533,-0.266567,0.275490,-0.462768,-0.204544,-0.079146,0.135455,-0.103216,0.309805,0.201468,-0.624787,-0.097766,0.020587,0.087496,0.155631,0.096447,0.291955,0.075406,-1.818338,0.256623,0.925213,0.049639,-0.506366,0.912260
0.417567,-0.001479,-0.160211,-0.672755,-1.002711,-0.177865,-0.662109,-0.094818,1.141972,-1.070793,-0.338435,-0.440373,-0.057472,-0.152821,-1.790859,0.218264,0.056688,-0.327683,-0.166861,-0.685874,-0.049651,0.554193,0.511965,-0.080282,0.026353,-0.875225,-0.720514,0.159861,0.005261,-0.137557,0.435894,0.187450,-1.963456,-0.155118,0.580278,-1.391669,-0.488655,-0.385188,0.128786,0.071886,0.114734,0.412447,0.041184,-0.070198,-0.092114,-0.279790,1.125618,-0.315033,0.999601,0.822325,-0.353763,-1.060958,-0.456482,0.047374,0.529045,-1.190634,-0.271741,-0.273644,-0.102455,0.536293,0.091684,-0.330122,0.439726,0.349673,0.091306,0.400257,-1.084906,-0.518207,-0.435331,0.723843,-1.163889,0.342860,-0.378586,0.184441,-0.318049,0.070395,0.196953,-0.008505,0.191044,0.355121,0.724473,-0.049778,0.001884,1.063177,-0.021035,0.076557,-0.406431,-0.083588,0.112903,0.146884,-0.391733,-0.854428,0.127063,0.041093,0.316400,-0.113413,0.135259,0.583856,0.256457,0.087139,-0.960109
0.165055,0.231213,0.038224,-0.291526,-1.372885,-0.827554,0.251675,0.040441,-2.973820,0.114301,0.020249,0.651166,0.891071,-1.596012,-0.215781,0.082782,-0.018815,-0.089359,-0.427358,-0.720833,-0.936458,0.792784,-0.065149,-0.044924,-0.168020,-0.417326,-0.559385,-0.142521,0.270968,-0.175163,-1.147324,0.681613,0.385174,0.258805,0.599348,0.232973,0.275896,-0.409477,0.486900,0.145314,0.139332,-0.454107,0.341463,-0.606517,0.112516,-0.333644,-0.905549,-0.496248,0.526459,-0.373887,-0.200264,0.280279,-0.372270,-0.027638,0.326463,1.203302,-0.057765,0.158284,-0.187040,-0.726321,0.145272,-0.647683,0.474425,-0.435832,1.665090,0.893248,-1.846084,-0.809721,-0.430265,-0.813034,-1.140527,0.405942,-0.132758,-1.078714,-0.262963,-0.439732,0.806619,-1.516176,0.680525,1.149689,-1.033411,-0.175335,0.005885,-1.032844,-0.096831,-0.227424,-0.203298,-0.465563,0.283929,1.149856,0.067480,-1.071433,-0.768326,0.342311,-0.650376,0.138074,-0.349886,0.281816,-0.144937,0.823053,0.461577
0.149659,-0.413051,-0.382937,-1.185351,0.294948,-0.396920,-0.433026,-0.990753,-0.588759,1.155821,-0.406735,0.928560,-0.871391,-0.863280,0.635818,-0.396239,0.205313,0.490253,-0.433847,-0.474815,-0.432968,-0.762835,-0.311243,0.316332,-0.298517,-2.274359,-0.475346,0.354216,-0.631477,0.292573,-0.068298,0.363338,-0.592111,-0.106580,1.359099,0.394062,-0.109196,0.035213,0.367972,-0.207175,-0.281487,0.097580,0.277451,0.301227,-0.357041,0.202750,0.773702,-1.024698,0.168444,-0.279073,0.346069,0.043241,0.176093,-0.422904,-0.992094,-0.020575,0.008372,0.312738,-0.773248,-1.564302,-0.396456,0.987764,-0.002182,-0.018342,0.430250,0.714259,0.402033,-0.082055,-0.015244,-0.062005,-0.180727,0.102832,0.221387,0.563703,-0.266045,0.341141,-0.148779,-1.489974,0.065678,-0.535291,0.875216,-0.006485,0.711557,1.324389,-0.077717,0.156326,0.163564,0.597146,-0.163930,0.528413,0.351258,-1.130498,0.703224,-0.272240,0.170471,-1.771582,-0.222290,-0.350682,0.281952,0.423681,-0.727030
0.105945,0.050271,-0.340343,0.023331,-0.019999,-0.607592,0.140372,0.117408,-0.468557,-0.386554,-0.448363,-0.357062,0.291136,0.103405,-0.778629,-0.103309,0.430052,0.439605,0.266520,0.228393,-0.585101,-0.217177,0.402409,-0.213404,-0.188681,0.439520,0.140401,-0.376643,-0.042194,0.192766,0.132741,0.063074,0.084920,0.436582,-0.397761,-0.556464,-0.047838,0.468505,0.222072,0.300989,-0.025498,0.197763,-0.087648,-0.402853,-0.066485,0.038682,0.832813,-0.211598,-0.501113,-0.705714,0.452558,-0.187976,0.100449,0.071783,-0.304800,-0.621795,-0.055602,-0.400021,-0.184551,-0.097262,0.257042,0.559694,-0.361660,-0.309777,-0.032404,-0.565039,0.255140,0.181085,-0.192099,0.423311,-0.096230,0.157949,-0.344131,0.016955,0.381130,0.037085,-0.251430,-0.238272,0.079054,-0.399642,-0.061974,0.292182,-0.701364,-0.176155,0.262989,-0.336543,0.290185,-0.511492,0.061571,-0.162818,-0.229811,-0.248109,0.336038,0.398831,-0.311455,-0.110381,0.177720,0.143351,-0.376847,-0.205733,0.087680
-0.494796,-0.743199,0.277245,-1.122355,0.243604,0.644574,0.373817,-0.775679,0.175316,-0.593896,0.270684,-0.314933,0.976976,-0.193699,0.798588,-0.144625,-0.105914,0.025870,-0.321558,0.020879,0.203460,-1.202849,-1.552266,-0.418680,0.093890,-0.653245,0.321605,0.461253,0.245036,-0.527703,-0.207337,0.128900,0.329940,-0.178945,0.507123,1.910928,-0.281189,-0.277691,-0.382848,-0.238273,-0.132221,-2.047652,0.776335,-1.059638,0.025710,-0.013779,0.293124,-1.457312,-0.442958,-0.694823,-0.280671,-0.110063,0.174490,-1.222092,0.258472,-0.721247,0.323465,-0.316950,0.554501,1.075259,-1.130842,0.891604,0.304804,-0.179342,0.043524,-0.250573,-0.139155,0.311422,-0.442534,-0.217346,-0.162576,-0.357387,-0.264324,-0.981193,-0.347560,0.354030,-1.560566,-1.101265,-0.622136,0.179423,0.446346,-0.025284,0.037367,-0.038274,0.298595,-0.289553,0.261589,-1.298234,0.006363,1.338475,-0.394279,-0.264579,-0.881236,0.318720,-0.424388,-0.019574,0.066469,-0.116957,-0.297116,0.727929,-0.574366
0.067128,0.167678,0.740221,-0.233751,-0.372682,-0.287143,-0.295219,0.627501,-0.346642,0.374435,-0.048265,1.281056,-1.867415,-0.911315,-0.380760,-1.665328,0.098529,-0.057554,-0.284314,-0.506850,1.253978,-0.173940,-0.542120,-0.713176,-0.391171,-0.956690,1.348440,-0.269005,0.266992,-0.347787,0.278636,0.779058,-1.687070,-0.018062,0.130466,0.984968,0.052599,0.230172,-0.378052,-0.088458,-0.222037,-0.338284,0.701976,-0.038088,-0.480020,-0.094104,-2.390555,-0.771932,-0.532494,0.112937,0.336772,0.674287,0.260460,-0.528542,0.237971,-0.276571,-0.402811,-0.491150,-0.082634,1.466582,0.150793,-0.023204,0.380703,-0.260573,-0.458431,-0.467586,-0.106926,-0.158509,-0.118336,-1.785943,-0.335655,0.476226,0.242885,0.757812,0.320673,-0.002558,-0.380648,-1.264428,0.204349,-1.328872,0.293115,-0.281244,0.673058,-0.503256,-0.378658,-0.108164,-0.304529,-0.606859,0.006760,0.839742,-0.444804,1.067176,-0.121633,0.013413,0.009987,-0.513250,0.213041,-1.706856,-0.238456,0.043745,-2.478196
-0.306177,-0.080277,-0.008871,-1.253607,-0.222700,-1.441734,0.334571,-0.394881,-1.391622,-1.147848,0.032212,-1.596042,-0.584643,0.401745,-0.604635,-0.113861,0.161885,-0.250044,-0.142339,0.080357,0.080867,-0.142194,-0.399009,0.053829,-0.119984,-0.065343,0.266681,-0.047807,-0.273760,0.286841,0.093339,-0.352621,-0.006823,0.013161,-0.035136,-0.379793,0.209232,-0.433195,-0.749247,-0.097339,0.056261,-1.024928,-0.191295,-0.508482,0.221914,-0.025315,-0.493015,0.250903,0.384391,0.285061,-0.220490,-0.621487,0.018204,0.961020,0.559785,0.384074,0.196005,-0.422452,0.276487,-0.014154,-0.305097,-0.639765,-0.090991,0.392563,-0.118594,0.073707,-0.596840,0.924769,0.000290,-0.745587,-1.049316,-0.100818,-0.286950,0.699245,0.007614,0.285302,0.658478,-0.280501,-0.913059,0.569087,0.591186,0.176951,0.279416,1.665209,0.040807,-0.317559,-0.356014,0.758770,-0.094897,-0.368971,-0.492970,0.100754,0.148049,0.306055,-0.470678,-1.298170,0.217587,-0.824074,0.138049,0.547805,-0.368694
-0.395574,-0.729466,0.721115,0.276538,-0.529354,0.449786,-0.476117,-0.361549,-0.624372,0.537134,0.005081,0.676638,0.639258,0.229141,-0.713722,-1.076998,0.042802,0.405623,-0.049779,0.708056,-0.825892,-0.374464,-1.023086,0.159827,0.406919,1.244408,0.690697,-0.448742,0.148144,-0.310119,0.129194,0.767728,-0.547401,-0.496027,0.454906,0.239369,-0.419126,0.436250,-0.317078,-0.002182,0.358547,-1.419776,0.934295,-0.043427,-0.431389,0.440733,-0.765015,0.671879,-1.019036,-1.557901,0.295281,-0.074992,0.392608,0.417057,0.124468,-0.658541,-0.322031,-0.079699,0.328457,-0.314183,-0.358575,0.460754,-0.389767,-0.327330,0.583513,-1.127940,-1.494282,0.513725,0.440611,0.187031,-0.852842,-0.000717,-0.298377,0.451920,-0.042528,0.255812,-0.355521,-0.868400,-0.427805,-0.624908,-0.323036,-0.044087,-0.940462,0.152606,0.070692,-0.113572,-0.335504,0.085829,-0.200003,0.320619,0.442420,-2.126009,0.262919,-0.421232,-0.367794,-0.340815,-0.101511,-1.863805,0.472302,0.558763,0.071461
-0.168579,0.000147,-0.309904,-0.361183,-1.745872,0.325552,-1.019923,0.301408,0.127953,-0.774320,0.187246,-0.711618,0.217950,0.054663,0.707568,-0.999003,0.383938,0.453080,-0.172855,0.268884,-1.150463,0.786166,-0.473109,0.883516,-0.060717,0.587828,-0.226078,0.384626,0.874052,0.083600,0.040693,0.432041,-0.254841,0.409891,-0.288684,-0.571566,0.479074,0.306444,-0.633885,-0.163564,0.049486,0.383601,-0.471075,0.269070,-0.351696,0.058000,0.378404,0.845405,-0.104509,0.362226,0.174300,-0.271462,-0.258863,-0.287846,-0.680042,-1.124792,0.284396,0.184530,-0.938520,-1.190577,-0.039843,-0.781714,0.485473,0.321337,-0.172483,-0.144739,0.536356,-0.386993,0.021775,1.280736,0.454075,-0.328578,0.689202,-0.304766,0.319514,-0.095172,-1.080762,-0.795472,-0.474751,-0.454788,0.858578,-0.112250,0.005370,-0.963089,0.285304,0.220154,-0.345332,-0.908996,-0.020127,-0.967362,0.313274,-0.364648,0.179502,-0.033586,-0.265147,-0.172896,-0.338023,-0.072035,0.072434,-1.315692,1.961981
-0.167878,0.322110,0.647612,-0.889598,0.003004,-0.154312,0.306732,0.794114,-0.667463,-1.382783,-0.392514,0.946305,-0.121312,-0.184439,-0.889699,-1.056884,0.318354,-0.019658,0.208311,0.222984,-0.883464,-0.143630,0.355923,-0.046216,0.100177,-0.249520,-0.757373,0.215384,-0.196455,-0.519839,0.154949,-0.537258,0.455504,-0.327590,-0.772911,-0.638993,-0.370035,0.478463,-0.774789,0.459593,-0.344539,-0.222245,0.539357,0.192226,0.114307,-0.437889,-0.033875,0.332502,-1.183221,-0.698362,-0.178806,0.929265,-0.466768,-1.133076,-0.107126,0.110122,0.154612,0.197592,-0.689112,-0.336836,0.523684,1.643771,-0.089129,0.029568,0.053515,1.078096,-0.007465,-0.293268,0.200247,1.025904,-0.680718,-0.001175,0.287465,-0.590785,0.367611,-0.362148,0.081308,0.882622,-0.229547,-1.008036,-0.213573,-0.456046,-0.683837,-0.443140,-0.257332,-0.301264,0.079211,-0.218535,0.443907,-0.227647,-0.163229,-0.133307,-0.515039,-0.287317,0.045382,-0.900662,0.112337,-0.407799,-0.309793,0.086171,-0.261870
-0.321192,0.379158,0.133294,-0.876962,0.290133,-0.978132,1.020061,-0.416434,-2.968963,0.183742,0.139363,-1.678321,1.563920,-1.491109,1.096775,-0.594800,0.412748,-0.382037,0.102699,0.967036,-0.070801,-0.691917,-1.055266,-0.724749,-0.448119,0.421197,-0.550657,-0.455634,0.259313,0.441386,0.182378,1.026557,1.374214,0.059363,0.353920,1.749889,-0.496101,0.470863,-1.102717,0.139363,-0.115406,-1.887994,0.451302,0.396970,-0.095557,0.276635,-0.452226,-0.467185,0.020449,1.110271,-0.352917,0.079316,0.385250,0.907601,-0.668891,0.058090,0.416983,0.191855,0.273589,-0.310994,0.010969,0.334797,0.018082,0.096273,0.785679,1.031979,0.184236,0.304125,-0.486419,0.377406,0.076589,-0.298608,-0.108391,0.322074,0.013565,-0.201743,0.323624,-1.636443,0.393957,-0.234317,0.473888,-0.036659,-1.205251,-0.489598,-0.448090,0.402718,0.469390,-1.413405,-0.250572,-0.000021,-0.159748,-0.344727,0.298871,-0.334407,-0.042293,-0.780974,0.356784,-0.157405,0.029780,0.612104,-3.540055
0.364674,1.498123,-0.390283,0.262071,0.251091,-0.896538,0.104155,1.069866,-1.093890,-0.327039,-0.412687,-0.171340,-0.206852,0.316953,-0.297801,-0.016412,-0.376308,-0.183882,0.412687,-0.514724,-0.061603,0.258189,-0.597662,0.169031,0.267968,-1.835876,0.643567,0.175601,-0.009492,0.021951,0.278249,0.088943,-0.449639,0.477953,0.275535,1.602415,-0.191083,-0.100071,0.904517,0.053331,0.305445,1.158046,0.096846,-0.968444,-0.435877,0.069112,-1.294341,0.058694,1.039525,-0.906406,0.007038,-0.907815,0.423423,-0.400422,-0.128541,1.281522,-0.374503,0.256706,0.573308,-1.101005,-0.346659,0.339410,0.436308,-0.019646,0.510989,-1.732322,-0.358344,0.319724,-0.317011,-1.413935,-1.496537,-0.109516,0.373927,0.231982,-0.373531,0.439197,0.399187,0.328678,0.891505,0.073697,-0.626750,-0.266953,0.688716,0.048707,-0.411543,-0.091228,0.260277,0.067102,0.114460,-0.066650,0.443936,-0.039925,-0.204048,-0.026597,0.140416,-0.167915,-0.047066,-0.067917,-0.398456,-1.404957,-1.168778
-0.294309,0.088434,1.406271,-0.613618,-0.453564,-0.037633,-0.346346,-0.329239,-0.670384,0.970841,0.348781,-0.175381,0.255532,-0.472583,-0.068378,-0.721233,0.447386,0.247368,-0.326075,-0.027430,-1.673273,0.479139,0.856996,1.046830,-0.217460,-1.269692,0.786443,-0.275118,0.141009,0.161154,-0.237165,-1.255283,-0.887516,-0.281430,-0.677113,-0.236880,-0.103595,0.101059,-0.896637,0.148457,0.469756,-0.691451,0.047891,0.203134,0.212814,-0.467864,-0.960111,-0.852890,1.424184,1.141452,-0.248893,-0.384300,0.175436,0.455564,-0.660778,0.158470,-0.335932,-0.024522,0.569078,-1.354252,0.773458,0.193298,-0.208396,-0.404438,0.450037,0.037174,-0.327114,-0.821130,0.379116,0.054397,-0.535574,-0.120350,0.172213,0.999948,-0.128956,0.054772,0.875963,-0.118211,-0.142338,-0.107563,-0.433521,0.197381,-0.557785,-1.084066,-0.498803,-0.147633,-0.354488,0.138748,-0.449248,-1.186303,0.488689,-1.097723,0.554580,-0.174581,0.031298,1.021736,-0.218900,0.672283,-0.316953,-0.708813,-3.985150
-0.193909,0.001251,0.085801,0.437038,-0.126934,-0.030585,0.240369,0.115220,0.182171,-0.532194,-0.459014,0.192886,-0.672107,-0.834825,-0.498222,-0.093894,0.289880,0.289026,0.295388,-0.274724,0.376043,-0.604187,-0.325126,-0.344786,0.121113,0.050379,-0.535912,0.377853,-0.377197,0.143331,-0.347610,0.289303,0.081314,0.263203,0.610288,-0.448014,-0.225364,0.388577,0.788161,-0.238243,-0.057970,0.879735,-0.252290,-0.015439,-0.278732,0.171499,-0.344362,-0.029651,-0.102161,0.705825,-0.007882,-0.092666,-0.158499,-0.426692,0.319963,-0.100556,0.186819,0.410703,-0.514711,-0.206019,0.193276,-0.222208,-0.092792,-0.073522,0.211673,-0.847957,-0.455436,-0.536112,-0.420225,0.450737,0.096734,0.402432,-0.775157,0.053594,0.179800,0.331135,-0.154527,-0.591730,0.152620,-0.069439,-0.566482,0.439695,-0.546667,-0.656746,0.007066,0.103783,-0.210288,-0.971600,0.018296,-0.083276,0.161565,0.291426,0.130837,-0.381741,-0.376987,0.089103,-0.009687,-0.358772,-0.015703,0.041103,-0.214443
-0.280780,-1.055083,-0.221467,-0.055393,-0.509762,-0.916680,-0.033408,2.151937,0.263222,-0.517907,-0.342860,0.487641,0.059760,0.844242,-0.354149,-1.014318,0.272362,0.470601,-0.220704,-0.784827,-0.181812,0.165625,0.433537,-0.539357,0.346614,-0.664633,-0.796287,0.119280,0.152772,0.527525,-0.460780,-0.358556,-0.309156,0.024410,-0.586663,-0.275252,-0.232359,0.268308,-0.512325,0.496735,0.392666,-0.667090,-0.113624,-0.670018,0.316886,0.018808,-0.724214,1.166556,0.448199,-1.957674,0.324858,-1.464115,0.013538,0.298296,-0.191061,-0.506208,0.332130,-0.164327,0.686436,0.273647,0.412539,-1.174104,0.482238,-0.032686,-0.257295,-0.680635,-0.840772,0.233890,-0.094806,0.310010,-0.208227,0.384365,0.404187,-0.578097,-0.251335,0.381023,0.257957,1.160705,0.317732,0.315193,0.266303,-0.343272,0.511167,-0.469581,0.397323,0.177720,0.236076,-1.020944,-0.325312,-0.835065,-0.332208,-0.554919,-0.447585,-0.332789,-0.215154,-0.895540,-0.388544,-0.130492,0.302586,0.082459,2.011405
0.134655,0.094448,-0.155845,-2.054466,-0.056494,0.177794,-0.057204,0.462479,0.367786,-1.632643,0.362453,-2.070235,-0.719227,0.736762,-0.473456,-0.641387,-0.057146,-0.487098,0.084521,0.038473,1.252347,-0.420525,0.752070,-0.797385,-0.217856,-1.434115,-0.147415,0.448790,0.132155,0.206528,0.459918,-0.314771,-0.905948,0.481302,-0.258234,1.314475,0.271305,-0.331996,-1.052073,0.254234,-0.351283,-0.760750,-0.509984,-0.725348,0.222098,0.133656,0.199940,-1.662394,-0.083540,-0.704308,0.215819,-0.532020,-0.261992,-1.133491,-0.463931,0.855493,0.345454,0.352657,0.386637,1.087995,-0.299217,-0.494995,0.092761,0.471755,-0.654773,-0.428909,0.376547,-0.871224,0.263298,-0.713289,-1.371379,0.224967,-0.208340,0.924765,0.189108,0.385403,-0.659361,0.085708,-0.236156,-0.320104,-0.809894,0.257589,-0.860242,-0.094579,-0.000834,-0.132139,0.423826,-0.309613,-0.136158,0.245656,-0.150570,1.697527,0.222284,0.315394,-0.317446,-0.870616,0.071525,0.720681,0.462023,0.112659,-1.340855
-0.365933,0.451081,0.675645,0.822421,-0.726585,-1.022144,-0.350760,-0.229615,0.021198,-1.380412,0.188345,0.159254,-1.850410,-0.181416,-0.124568,0.531066,0.133808,0.453306,-0.071483,-0.525497,1.250392,-0.450180,0.139112,-0.585128,0.133137,0.801611,-0.832041,0.329509,0.397720,-0.450669,-0.050122,-0.026679,-0.283708,-0.384902,0.234102,0.281623,-0.289074,0.057207,1.097973,-0.466552,-0.074755,1.830422,-0.192446,-0.257317,-0.231577,0.460899,-0.562727,-0.619756,-0.974072,-0.598745,0.113793,1.166269,0.122433,0.370956,-0.464406,-0.613835,-0.297665,-0.025529,-0.570866,-0.670990,0.242600,-1.209786,0.451201,0.309020,-0.432256,0.502405,-1.063418,-1.009574,0.335994,-0.315843,-1.209510,-0.467101,-1.333218,-0.243913,0.029771,0.062100,0.740480,0.247536,-0.671329,-1.542074,-0.449793,0.081795,0.111273,0.135332,-0.124703,0.390042,0.289422,0.115324,0.314905,0.401492,-0.046836,-0.029210,-0.093766,0.253014,-0.343372,-0.649984,-0.378354,-0.753077,0.065542,0.726855,-0.800728
-0.207663,-0.389009,-0.050031,0.217141,0.915721,-0.380034,-0.455373,0.150592,0.160705,0.131084,0.076250,-0.606468,-0.428948,-0.494112,-0.477043,0.726098,0.285333,0.397508,-0.463768,-0.257961,0.833801,-0.424889,-0.259936,-0.530534,-0.373775,-0.133350,-0.243282,-0.016548,-0.321035,-0.026013,0.332454,0.173567,-0.154312,0.014794,0.525089,0.336514,-0.162008,-0.490600,-0.284488,0.223624,-0.144459,-0.275686,-0.396501,-0.129286,-0.167104,0.036851,-0.394101,0.085509,-0.451454,0.075629,0.260707,0.101457,-0.050676,0.096327,0.353067,-0.512838,-0.301059,0.445738,-0.084773,0.256499,-0.122785,0.109924,-0.284478,-0.464657,0.158389,-0.363545,0.157461,-0.401856,-0.272698,-0.663480,0.065934,0.052782,-0.464322,-0.013448,-0.287286,0.007790,0.038696,0.056582,-0.314079,-0.055036,-0.761706,0.050005,-0.521084,-0.342130,-0.404004,-0.433653,-0.121693,-0.425003,-0.074694,-0.206329,-0.093607,-0.425467,-0.273826,0.492676,0.257364,-0.441629,0.414383,-0.657354,0.146452,-0.101019,0.392988
-0.013840,-0.528799,1.735168,-0.470685,0.047261,-0.507939,0.132321,1.650317,-1.803754,-1.778454,0.242821,0.704380,-1.022987,-0.193276,-0.323659,-0.498094,0.162984,0.015763,-0.349408,-1.019124,1.169800,-0.442776,0.008592,-0.974901,0.451537,-0.583660,1.719120,-0.073473,0.363419,0.147604,-0.244628,-0.229973,-0.673440,0.030045,0.644027,0.016154,-0.284417,-0.365444,-0.159914,-0.479919,-0.397031,0.798607,0.051300,-0.093127,-0.433425,0.414579,-1.568653,-0.158919,0.133906,-0.989953,-0.312527,-0.924701,0.000290,0.803680,-0.527780,-0.513056,0.200239,-0.043260,0.212837,-0.553839,-0.154366,0.350526,-0.325434,-0.122806,0.142624,-0.251988,-0.955963,-0.709964,0.074053,-1.118158,-0.308280,-0.137226,-0.629064,-1.258767,0.476104,-0.340184,1.276472,0.754926,-0.270255,-0.964071,-0.932522,0.036576,-1.020285,0.886759,-0.334747,-0.184597,-0.361812,-0.771908,-0.353786,0.480733,0.269728,0.019170,0.166555,0.019944,0.117763,-1.286294,0.371277,0.224853,-0.049333,1.098926,-3.482096
-0.014137,1.620903,0.729796,-0.035659,-0.067433,0.802591,0.436287,1.101932,0.123996,1.071426,-0.029374,1.661217,0.746867,-0.152703,-0.785222,-1.828480,-0.482849,0.100837,-0.131234,1.062286,-0.722424,-1.380501,0.035349,0.288895,-0.266747,0.227675,-0.416158,-0.497993,0.272840,0.201522,0.078138,-0.718028,-0.181298,-0.041051,-0.453210,0.045487,0.016357,0.290122,0.015077,0.177786,-0.207999,-0.032147,-0.321625,-0.828711,-0.027610,0.128655,0.271683,1.449821,-1.249055,-0.937246,0.272388,-0.715450,0.339124,-0.588808,-1.600725,-0.809443,-0.353891,0.343989,-1.312019,-1.475345,0.817783,-1.399072,-0.271874,0.459141,-1.080801,-0.216602,0.449852,0.651692,-0.075579,-0.520774,-0.826164,-0.278191,-0.029598,0.778489,-0.032365,0.461919,-0.975025,-0.660559,-0.349259,-0.548169,-0.060712,0.221255,0.863901,-0.160198,-0.408313,0.284946,0.028244,0.246259,-0.001572,-0.655570,0.471775,0.198834,-0.105202,-0.012040,0.044655,0.794201,0.054557,0.448114,-0.215157,-0.958319,-2.921539
-0.072983,0.042077,-0.651621,0.676451,-0.998755,-0.247834,-0.300578,-0.320534,0.860964,0.741816,0.449980,-1.112029,1.059975,0.386959,-0.651827,0.348824,0.041459,-0.193102,-0.188655,-1.231310,-0.476542,0.267254,0.911090,-0.100356,0.101062,-1.448929,0.332738,-0.288503,0.231855,-0.031047,0.169642,-0.919966,-0.875832,-0.129078,-0.978017,-0.433239,-0.295618,0.303247,-0.219698,0.119495,0.291772,0.105611,-0.322951,0.067512,0.265191,0.454405,-0.327602,-1.832999,0.861566,-0.773417,-0.408635,-0.772854,0.121632,0.157069,0.928149,0.096256,-0.302148,-0.162984,0.995839,0.388608,0.010907,0.438320,-0.285607,0.269609,-0.193401,-0.447788,-0.354037,-0.398432,-0.156362,-2.192468,-1.225076,-0.416349,-1.290133,-0.790539,-0.006729,-0.449980,0.699461,0.215745,0.328380,-0.387417,-0.518972,0.449685,-2.476346,0.150158,0.430240,-0.082904,-0.399625,0.137471,0.382839,-0.559015,-0.181944,0.251742,-0.847492,0.068560,-0.407031,0.510650,-0.121570,0.665789,0.327157,-0.100607,0.464815
-0.232910,-0.627753,0.486282,-0.917371,0.962145,-1.332203,0.321768,0.073770,-0.881584,-0.510087,0.487793,0.248413,-1.996979,-0.328686,-0.674812,0.136954,-0.436888,0.143116,-0.168815,-0.361683,0.379300,-0.010345,0.202867,-0.289451,0.401212,-1.720730,0.290738,0.325004,0.263607,-0.369848,-0.022379,0.017597,-0.197801,-0.272472,-0.460568,-0.218530,0.190973,-0.390286,-0.741756,0.381558,0.009445,-0.937952,-0.789176,-0.455840,0.367912,-0.454554,1.290143,-1.531481,-0.021564,-0.832291,-0.051236,-0.753616,0.079394,-1.481997,0.073676,0.429753,0.163055,-0.352809,-0.685849,0.747621,-0.530814,0.671339,-0.002182,-0.448697,-0.629018,-0.618507,0.594208,1.257498,-0.251274,-1.640765,1.165312,0.262841,-0.963031,0.471704,0.380001,-0.020235,-1.059259,-0.143135,-0.380333,0.455064,-1.052904,0.210389,0.333390,-0.220727,-0.470050,0.302855,-0.097156,0.074865,0.449126,0.874589,0.349361,1.420351,0.135545,0.470061,-0.336535,-1.944822,0.463502,-0.277038,0.119870,0.523677,-0.524135
0.287641,0.431789,-0.770662,0.137512,-0.664173,-0.262753,0.060780,-0.432198,-0.967756,1.534422,0.053819,-0.143236,0.163301,-0.680539,0.745872,-1.383651,-0.350490,0.226720,-0.167748,-0.666898,-0.087662,-0.873282,-0.267832,-1.505337,-0.337336,-0.075354,0.025315,0.105854,-0.357977,0.147921,0.313741,0.858775,-0.272289,-0.175860,0.143631,-0.410542,-0.398190,0.297724,0.182912,0.339290,0.453246,-0.828525,0.765305,-0.205166,0.080584,0.150410,-0.930806,-0.127630,-0.817476,0.381747,0.166335,-0.438756,-0.322566,-0.792502,-0.354970,0.130453,0.010462,0.088488,-0.042315,-1.116795,-0.186144,-0.183456,-0.128529,-0.013732,-0.086832,-0.649283,-0.729612,-0.292263,0.324000,-0.058336,-0.323594,0.186666,-0.557006,0.455309,0.435911,-0.400870,-1.227241,-0.972594,1.537211,0.188283,-0.333946,-0.392190,-1.072195,-0.152446,-0.439433,-0.428739,-0.298181,-0.334060,0.464354,-1.280934,0.148320,-1.096514,-0.328649,0.044237,-0.036536,0.092979,-0.125173,0.672332,0.014626,0.061760,-0.929766
-0.081694,0.750743,0.492989,-0.747904,-0.733367,-0.270477,0.129150,0.538934,0.211365,0.148213,0.496521,0.638288,-1.260750,-0.864012,-0.499777,-0.594604,0.130909,-0.452105,-0.472900,-0.242311,-0.498598,-0.583690,0.132436,-0.310468,-0.224998,-1.064151,0.164405,0.350551,0.371374,0.019362,-0.059175,-0.045354,-0.195335,-0.241686,-0.266734,0.188955,-0.334717,-0.024028,-0.236259,-0.281640,0.088824,-0.420042,0.018847,-0.324426,0.480895,-0.049442,-0.690043,-0.244256,0.898004,0.402779,0.025471,0.094625,-0.244313,-0.925444,0.223997,-0.715531,-0.139790,0.429930,-0.625604,-0.682596,-0.555662,1.160887,0.226829,0.433096,-0.034803,-0.932726,0.033786,0.646018,0.390194,-1.388824,-0.766033,-0.235099,0.110229,0.182022,0.299127,-0.408444,0.074797,0.847136,-0.040942,-0.833332,-0.030665,-0.308525,0.137480,-0.047938,-0.459609,0.170295,0.396329,-1.163697,-0.341273,-0.177387,-0.340723,-0.522940,0.157454,0.360195,0.447138,-0.048066,0.118045,0.692010,0.188021,-0.201855,-1.157056
0.009690,0.133680,0.280556,-1.427558,-0.707307,1.179434,-0.035192,0.092825,1.402151,0.556553,-0.291498,-0.770545,-0.396762,-0.105848,-0.004317,-1.049418,-0.119465,-0.169667,0.232815,0.722275,-0.176083,1.301116,0.305114,-0.430744,0.100696,0.269357,-0.320494,0.000839,0.294038,0.123765,-0.018296,0.036045,0.023003,0.117084,-0.777658,1.130275,0.354843,-0.469207,-1.031549,-0.127522,-0.490844,-1.794561,-0.172467,-0.118516,0.362117,0.456116,0.424032,0.984437,0.578775,-0.275326,0.149352,-0.409434,-0.455449,0.091577,-0.624964,-0.332419,0.271396,0.067522,1.312053,0.778949,0.404845,0.967523,0.287957,-0.336654,-0.560877,0.108736,-0.053034,-0.814717,0.325037,-0.260976,-0.692423,-0.220664,-0.951844,-0.312912,0.079089,-0.166219,-1.019673,0.261469,-0.338956,-0.417939,-0.030973,0.138492,-1.087203,-1.918254,-0.218289,-0.384823,-0.092639,-1.921475,0.208426,-0.830848,-0.037184,-0.227825,0.356443,-0.326807,-0.438483,0.600828,0.323680,-0.281685,-0.421961,-0.275601,-3.090687
-0.325033,0.047549,1.437201,-0.196976,0.731178,-1.243286,-0.448967,-0.766512,-0.526434,0.284388,0.065050,0.146699,-1.030228,-0.912807,0.934301,-0.129561,0.303766,-0.180995,-0.475313,-0.717243,0.323125,-0.034658,0.141167,0.259513,-0.423582,0.003722,0.506069,-0.028039,0.344913,0.157958,-0.125923,0.272831,-0.311339,-0.488722,0.458478,0.575776,-0.137473,0.151900,-0.701457,-0.109058,0.082598,-1.131654,0.298638,-0.073898,-0.118490,0.466023,0.323263,-0.697658,-0.503537,0.907046,0.175625,0.259013,-0.298345,-0.240987,-0.030598,-0.428691,0.350150,-0.304254,-0.808224,0.707705,0.456579,1.006624,0.054552,0.138737,0.544225,0.917541,-0.955624,0.468540,0.092364,-0.192863,1.463528,-0.406430,-0.113176,-0.943670,-0.256951,-0.353815,0.352238,-2.242610,0.422192,-0.841524,-0.321162,-0.231455,0.495662,-0.713671,-0.237763,-0.262259,0.484619,-1.125375,0.101520,0.050886,-0.534802,0.836175,-0.222844,0.322108,0.290025,-1.131179,-0.447544,1.235633,0.331592,-0.081270,-1.390145
-0.232352,0.527770,0.491577,0.409627,0.379672,-0.457134,-0.281710,0.211105,0.993962,-2.766207,-0.320704,1.299231,0.222213,-0.917418,1.231491,0.533335,-0.242485,0.088169,-0.473967,-0.549786,-1.612411,-0.596241,-0.576870,0.400376,-0.031999,-0.220181,-0.262960,-0.421817,0.450702,0.137688,0.235889,-0.675753,-1.468967,-0.481189,-1.482071,0.383127,0.454080,-0.243884,0.120553,-0.171743,-0.088977,0.297534,-0.027774,-0.856973,0.103658,-0.380336,-2.314267,-0.544236,0.303315,-0.755016,-0.364933,-0.183818,0.358940,-0.723405,1.575079,-1.061981,0.116073,0.107288,-0.107682,0.493859,-0.250446,0.666576,0.410245,-0.010558,-0.315588,-1.398069,-0.275022,0.365716,-0.341762,0.956239,0.654069,-0.236564,-0.039285,-1.520235,-0.098773,0.495180,-0.070066,0.796904,-0.782443,0.060394,-0.058166,0.300287,-0.602074,0.093600,0.154681,-0.048867,0.239496,-0.772268,0.472991,-0.115085,-0.091843,-0.718458,-0.410789,-0.000137,-0.082110,-2.418931,-0.189328,0.307102,-0.206807,-1.154269,-1.652488
0.145214,0.103339,-0.333630,-0.131951,0.032899,0.219246,-0.214480,0.440998,0.412687,-0.514389,0.300165,0.265071,1.874984,-0.809924,1.451036,0.174959,-0.493286,-0.107624,0.151234,1.046652,-0.340423,0.565657,0.268520,-0.091373,0.305170,0.334502,-0.323605,-0.133922,-0.018033,0.423582,0.317228,-0.792825,0.778528,-0.385708,-1.160094,0.446699,0.340874,0.063645,-0.424870,0.232994,0.123035,-0.742708,-0.467470,-1.102779,-0.218022,-0.179006,-1.859852,-0.288235,0.378866,0.282182,0.460149,-0.579201,0.384628,0.567915,0.384222,-0.686194,-0.460723,-0.274285,0.800701,1.364254,1.004744,0.615259,0.360652,-0.017018,1.151531,0.023686,0.469827,-1.492080,0.106403,-0.492099,0.668323,0.360927,-1.118261,-0.685233,-0.008560,-0.096271,0.060308,0.070165,0.058085,0.292991,-0.458557,0.307601,-0.719704,-1.606558,0.127590,0.214897,-0.438536,-2.334746,-0.325343,-1.463696,0.142476,-0.430963,0.393648,0.428648,-0.345132,-0.042256,0.244791,-0.019237,0.106596,1.432018,-4.136080
-0.267886,-1.070970,0.392076,0.254313,-1.197879,-0.946075,0.354897,0.210955,-0.451023,-1.104852,0.001328,-0.553492,-0.531223,-0.609468,0.094954,0.135819,-0.414884,0.229861,0.303548,0.330758,-0.981107,1.023763,0.032054,-1.287340,0.353298,-0.121883,0.920447,0.176562,0.342281,0.072805,-0.445072,-0.032382,0.013708,0.474923,-0.445079,-0.411887,0.187582,-0.289530,-0.912150,0.284356,-0.134724,0.428887,0.322665,0.204951,0.153070,0.100116,-2.420559,1.069544,1.422859,0.675981,-0.040964,-0.883442,-0.277484,0.820231,0.471763,-0.055272,0.433599,-0.413724,0.843985,-1.374340,-0.354992,0.149118,0.005387,0.146632,0.187795,0.939499,-0.213584,-1.343705,-0.424039,0.418431,-0.884929,-0.087115,-0.487621,-0.829761,0.481262,-0.026938,0.119787,-0.086035,0.656620,0.333250,0.336510,0.477809,-1.305276,-0.273559,-0.140737,0.264654,0.196493,-0.616794,0.216605,-1.794006,0.447271,-1.866520,-1.106223,0.249748,0.326467,0.955080,-0.156961,0.736764,0.370717,0.329532,0.988356
-0.006272,-0.054598,0.301641,-0.512297,-0.308129,-0.271182,0.016118,-0.054914,-0.164078,0.377647,-0.156911,0.045174,0.005230,-0.188849,-0.338241,-0.283043,-0.101215,-0.292932,-0.488739,-0.008886,0.584492,0.045578,-0.076478,0.095668,-0.255425,0.068459,-0.057991,-0.297143,-0.267413,0.002947,-0.295895,-0.112242,0.066436,-0.471068,-0.236926,-0.471533,0.128956,-0.230216,0.036006,0.087085,-0.406980,-0.215130,0.198019,0.403973,0.003586,-0.494049,-0.321029,-0.247721,-0.375151,-0.423645,-0.225731,-0.152932,-0.196219,-0.251360,-0.444492,-0.304474,-0.282586,-0.467803,-0.486211,-0.390563,-0.137094,-0.422452,0.438169,0.336390,-0.017025,-0.486950,-0.009927,-0.118051,0.470885,0.285796,-0.327886,-0.272881,-0.259867,0.333087,-0.133259,-0.083514,-0.252099,0.036076,0.094832,0.095874,0.418818,-0.405940,0.281718,0.004131,-0.227210,0.429350,-0.094104,0.020684,0.364284,-0.056871,-0.042911,-0.342523,-0.481866,0.483398,0.447720,-0.263284,-0.046349,0.622469,-0.183096,0.230743,-0.139420
0.189099,0.874935,0.913303,1.161514,-0.552368,-0.435705,0.317814,1.044908,-0.720683,-1.032665,0.073229,0.918664,0.665842,-0.320176,0.483489,-2.080674,0.230674,0.087761,-0.073075,-0.924890,-0.445009,0.769413,-0.032491,-0.385634,0.320765,0.220896,0.869315,0.340088,1.059209,0.243440,0.449341,0.501890,0.766819,-0.378362,-0.943663,0.265579,0.373257,-0.026855,1.007432,0.048235,-0.221702,0.012147,0.317647,-0.389271,-0.489447,0.376614,-1.598818,1.192912,0.163042,-0.489394,-0.132347,-0.113816,-0.337130,-0.540164,0.772430,-1.707238,0.072794,-0.414151,-1.297671,0.182785,1.077355,-0.646614,-0.026078,0.285848,1.766096,-0.679405,0.349815,-0.111795,0.138508,0.197745,-0.320727,-0.136494,-0.616205,-0.222482,0.236717,-0.158632,-0.434108,0.489374,0.703511,0.557279,-1.097547,0.152569,-1.406640,-1.471140,-0.119122,-0.004102,0.182029,-0.330034,0.457884,-0.299463,-0.183933,0.558405,0.004321,0.134388,0.309554,-0.702270,-0.130520,-1.236595,0.117349,0.254941,-1.752439
0.022813,0.624076,-0.543710,-0.355080,0.490255,0.005560,0.173372,0.093383,-0.344564,1.161549,-0.157460,1.395257,0.284879,-0.416531,-0.282279,0.023719,0.158345,0.164937,-0.005239,-0.858506,0.274390,0.566883,0.285569,-0.607055,-0.228660,-1.407681,0.076819,-0.480996,0.354668,-0.031612,0.060800,0.929272,-0.457436,-0.392758,0.000645,0.420214,0.395535,-0.422134,0.348065,-0.162648,-0.078936,0.733428,0.420517,0.503644,0.465607,-0.453459,-1.471049,-0.539162,0.026852,-0.355774,0.106054,0.077174,0.119404,-0.472432,-0.364844,0.363309,-0.430398,-0.171712,-0.222901,-1.610642,0.043303,-0.697895,-0.440672,-0.218733,-0.471448,-1.656891,1.659623,-0.178594,-0.211051,0.547490,0.183477,0.247826,-0.292829,0.111039,-0.226371,-0.282390,-1.055350,-1.029547,1.024775,-0.146235,-0.272570,-0.075701,0.571916,-0.306291,0.184440,-0.431054,-0.102191,-0.387283,0.496307,0.521743,0.065645,0.064410,0.288437,0.296869,-0.401363,-0.221194,-0.074654,0.019572,-0.278679,0.500490,-2.895766
-0.337705,-0.647499,-0.542770,1.355699,0.193186,0.171877,-0.211330,0.011097,-0.375327,-0.330572,0.477111,-1.011584,-1.181992,0.072219,-0.983980,0.502481,-0.119770,-0.143298,0.116290,0.127204,0.808488,-0.087133,-0.536764,-0.674129,0.094623,-0.208863,-0.338103,-0.038169,0.282302,0.209426,0.159578,-0.130841,-0.878451,0.313645,-0.771154,-0.522776,-0.318293,-0.457121,-0.212690,-0.390042,0.484619,-0.388100,0.259453,-0.095122,-0.270979,0.051805,-1.511374,0.141945,0.276472,-0.440226,-0.114072,-0.737634,0.143396,0.478801,0.253067,-0.447928,0.354549,0.157826,-0.487513,0.204471,0.079124,-0.948557,-0.359584,0.264631,0.810350,-0.505551,0.087354,-0.013166,0.246147,0.427315,-1.526634,-0.377743,-0.505728,-0.247703,0.044389,0.029036,0.684573,0.256569,-0.113727,0.602619,-0.860226,0.349908,0.815815,0.484601,-0.361873,0.056396,0.346065,-1.367907,0.135762,0.254716,-0.408151,1.330664,0.006313,0.448698,0.346484,-1.104327,-0.411899,-1.503302,0.010651,-0.428808,0.493944
-0.379609,-0.101132,0.426304,-0.589866,-0.527859,0.903129,0.362761,-0.581396,0.178173,0.098345,0.280419,0.150535,0.036704,0.628137,-0.461847,-1.101554,-0.125050,-0.221549,0.459807,-0.105792,-0.721185,0.850768,0.069434,-0.109918,-0.037614,-0.979185,0.181560,0.446226,0.236205,0.121273,-0.222375,-0.151711,-1.049183,0.295584,-0.311459,0.111475,0.407049,-0.460844,-0.719013,-0.100848,0.056200,-0.761458,0.360686,0.719724,0.384031,-0.091693,-1.103891,-0.408307,1.231472,-0.526874,-0.063151,-0.108046,-0.100269,-0.316963,-0.110583,-0.665095,-0.219434,-0.302637,0.785014,-0.334220,0.343833,0.703670,0.138630,0.386868,0.351203,-0.304512,0.980515,0.854357,0.043077,0.221319,-0.286511,-0.306452,0.271791,0.316268,-0.377834,0.088833,-0.312518,0.557593,-0.326766,-0.094927,0.408803,0.096793,-0.490729,0.176911,-0.113674,0.328827,0.030229,-0.426958,0.316156,-0.340932,-0.458555,0.094810,-0.176276,-0.382076,0.082277,-0.217523,0.486496,-0.116047,0.403556,-1.064031,-0.726595
-0.278376,-0.141336,1.382730,0.646425,0.600240,0.223464,-0.243223,-1.092995,-0.719910,1.076108,-0.354335,0.891296,-0.011458,-0.262137,0.002487,-1.287389,-0.116230,0.242356,-0.361337,0.258657,0.325044,0.083071,0.430905,0.446119,-0.242058,-0.945745,-0.410680,-0.180137,0.088197,-0.412882,-0.137656,-0.438169,-1.204362,0.118782,-1.567271,0.738360,0.040188,-0.311748,-0.025854,-0.369930,0.341304,-0.552095,-0.396445,-1.105965,0.087900,0.469672,-1.124218,-0.978519,1.415307,-0.561201,0.368702,0.587832,-0.415204,-0.566377,-0.085082,-0.372017,-0.175266,-0.101764,-0.160735,0.116535,0.142068,1.222521,0.159383,0.033384,0.776391,0.356380,-0.453129,0.140614,0.464599,-1.463450,-1.532876,0.065264,-0.299067,-0.594090,0.114643,-0.194347,0.124144,-0.134384,-0.132149,-1.369827,-0.485987,0.470936,0.677113,-1.661485,-0.465047,-0.286070,-0.056657,0.460006,-0.109790,0.396353,0.317526,1.333646,-0.391343,0.108478,0.056474,-0.150686,-0.545470,-1.302994,0.098575,-0.131257,1.228410
0.214884,0.328641,0.063633,-1.137415,0.603682,0.192198,-0.026182,0.195975,-0.374563,0.840522,0.036332,-0.660518,-0.324026,-0.003711,0.868216,-0.359235,-0.043931,0.007303,0.000839,-0.481042,0.344273,-0.405824,-0.638327,0.544212,-0.060350,-0.234492,0.003307,-0.077167,-0.081415,-0.324134,0.349779,-0.310979,-0.431576,-0.384069,-0.713510,-0.757717,0.493911,-0.094073,-0.707603,-0.116443,-0.373470,-1.119517,-0.674706,0.106257,0.454192,0.149831,1.112401,0.367930,0.012731,-0.111414,0.321416,0.042756,-0.163902,-0.778477,-1.011402,-0.574192,0.253838,0.125813,-0.877049,-0.912715,0.351005,0.226060,-0.168325,0.379989,-0.380210,-0.720182,-0.714066,0.468852,0.309656,0.054055,0.797783,0.185263,0.138624,-0.192817,0.271661,-0.202933,-0.100929,-0.345712,-0.365714,0.735437,0.672476,-0.162890,0.335136,-1.415594,0.352237,0.235247,-0.349635,-1.393221,0.087451,-1.099741,-0.267326,-0.024980,1.057055,-0.475616,-0.490282,-1.635847,-0.336214,0.407202,-0.218400,-0.057702,-0.805495
-0.260460,-0.201270,0.297030,0.686357,-0.566838,-0.661845,-0.338480,-0.505795,-0.581651,0.128941,0.468993,0.441692,-0.187628,-2.087864,0.570484,0.332310,-0.289972,0.195154,0.236268,0.122051,0.486537,0.152729,-0.770752,-0.266584,-0.106037,1.253808,-0.074984,0.312040,-0.469955,0.096693,-0.018327,1.085464,-0.507723,0.053559,0.918755,-0.066190,0.183859,-0.445789,0.745930,-0.440825,0.428800,0.310278,0.331026,-0.457684,-0.029912,0.244316,0.336992,0.027726,0.812457,0.651318,-0.415861,-0.266589,0.137990,-0.916531,0.250295,-0.579120,0.244883,-0.413144,-1.001027,-0.024736,-0.150719,-1.439244,0.268700,0.088094,0.171157,0.238729,-0.601321,-1.645793,0.306574,0.164202,-0.790459,-0.355098,-0.457211,-0.570143,0.461394,0.388428,-0.853269,-1.793697,1.081269,0.455606,0.744515,-0.188440,0.531901,-0.813825,0.382402,-0.426277,-0.339532,-1.179415,0.441954,0.909676,-0.398328,-0.034262,-0.594800,0.467193,0.260153,-0.874368,0.076692,0.216785,-0.238679,-1.151226,-0.866622
0.443869,-0.492440,0.852732,0.710879,-0.202593,-0.016481,-1.152945,0.057454,-0.480066,-1.245412,-0.334712,0.095856,1.087335,-0.974650,0.077624,0.399160,0.234062,-0.159505,0.058476,-0.144330,0.744334,-0.111722,-0.007369,-1.752413,0.419034,0.952462,0.063040,0.444899,0.896403,0.645030,-0.287315,0.321619,-0.067306,0.021989,1.371948,-0.822380,0.152058,0.318726,0.173212,0.399289,0.309259,-0.007046,-1.102965,-0.060115,-0.066574,0.372585,-1.327503,0.165752,0.856198,0.477383,0.216662,-0.022386,-0.383103,-0.164777,-0.429666,-0.238675,0.053789,0.369442,-0.109790,0.605618,0.761649,0.336520,0.122791,-0.463605,0.633497,0.545659,-0.153609,-2.522094,-0.363247,0.325944,-0.395808,-0.267815,0.389418,-0.611442,-0.281976,-0.488458,0.507551,-0.332616,0.295272,-0.193031,-0.365420,-0.122870,0.604304,-0.808800,0.166613,-0.416546,0.325800,-2.405832,-0.073992,0.333525,-0.125410,0.018085,-0.061731,0.008133,-0.504795,-0.752469,0.129463,-1.110165,0.229911,0.211158,-1.684815
0.027879,-0.210688,-0.078707,-1.292508,0.175064,-0.765083,-0.134424,-0.574303,-1.161799,0.242043,0.169027,-1.041179,0.563127,-0.447462,0.107250,0.486817,-0.291955,-0.208792,0.037553,-0.177261,0.776611,0.783656,0.248215,0.130539,-0.478607,-0.993766,0.673058,0.458210,-0.217281,-0.389527,-0.357156,0.426312,-0.327770,-0.322135,0.816250,1.176261,0.131092,-0.487915,-0.665311,0.252403,-0.477447,-0.980507,-0.683242,0.129666,-0.054734,-0.194998,0.381684,-0.167153,-0.201664,-0.508015,-0.443150,-0.181852,-0.093524,0.494591,-0.462297,0.611784,-0.125061,0.233055,0.554780,0.760780,0.182289,-0.989829,-0.015305,-0.174551,0.406350,0.920296,-1.354639,-0.969699,0.431028,-1.845173,-0.198063,-0.204398,0.681770,-0.654829,-0.453856,0.419156,0.359578,-0.395810,-0.169881,-0.207372,-0.385911,-0.360080,-0.491739,-0.086935,-0.158371,-0.284885,0.474822,-1.001110,0.172384,0.234674,0.310270,0.521268,-1.051451,-0.045427,-0.021813,-0.910750,0.195088,-0.849211,0.007745,-0.527993,-0.108053
0.098254,-0.178276,0.183165,-0.276773,0.252730,0.114380,-0.027665,-0.500156,-0.405493,0.183507,0.152913,-0.230108,-0.075514,0.263453,-0.385160,-0.345628,0.436552,0.216178,0.167867,-0.363450,-0.240500,-0.268669,-0.423993,-0.248056,0.157613,-0.184180,-0.219901,-0.277551,-0.483459,-0.112330,-0.037403,-0.018020,-0.414548,0.288049,-0.307734,-0.032293,0.050371,0.125507,0.065129,0.150624,-0.330378,0.024686,-0.219905,0.074230,0.398801,0.399319,0.230436,-0.268583,-0.485735,0.424684,0.053705,0.343311,-0.254357,0.283701,0.298730,-0.100626,0.385861,0.382809,-0.329928,-0.160624,0.431031,0.095757,-0.131825,-0.478607,-0.303327,-0.494460,-0.013470,0.006555,-0.048753,-0.205542,-0.245460,-0.042680,-0.017933,-0.016578,-0.459349,0.459807,-0.043160,-0.167682,0.251058,0.328869,0.053976,-0.094861,-0.150306,-0.198817,0.262932,-0.385281,0.397244,-0.526192,-0.186300,-0.354231,-0.135463,-0.212216,-0.175348,-0.124348,-0.367428,-0.184424,0.201649,-0.503528,0.429441,-0.318260,-0.312603
0.179037,-0.821886,-1.214056,-0.419556,0.310342,-0.608496,1.116963,-0.450497,0.796873,1.229714,-0.102649,-1.193772,-0.679778,0.103303,0.258440,-0.152774,0.433988,-0.201100,-0.306085,-0.456956,-0.303237,1.106183,1.053323,-0.472162,-0.009323,0.642550,-0.577456,-0.121288,0.039214,-0.386954,0.534782,-0.036040,0.721903,0.285302,-0.263881,-1.081807,-0.298361,0.237663,-0.970262,-0.149831,0.314264,-1.143393,-0.723776,0.421716,0.486450,0.411771,0.230749,0.172418,-0.413990,0.892137,-0.410469,-0.204110,-0.042267,-1.762219,0.701038,-1.086601,0.251793,0.088031,0.235598,1.425580,-0.118435,0.174009,0.084948,0.326750,-0.031791,-0.677023,-0.921105,1.009028,0.409513,-1.569837,1.316378,-0.066393,-0.918136,0.386447,-0.198386,-0.466765,-0.113611,0.738831,-0.279052,-0.922604,-0.733374,-0.348881,-0.662610,-0.982788,0.268639,0.186137,-0.390927,-1.912212,-0.179678,-0.878237,0.310902,0.580634,-0.306255,-0.073687,-0.364652,-0.747189,-0.150990,-0.897806,0.375532,-1.555756,-0.943522
0.279120,0.423103,-0.995771,0.094431,-0.993507,-0.557332,0.941133,-0.290112,0.065467,-1.894257,-0.467956,-0.703758,1.086624,0.159338,-1.015483,1.003387,0.490204,-0.098831,-0.483787,-0.482313,0.386871,-1.554250,-0.567820,-0.551327,0.051195,-0.850856,-2.141675,0.487461,0.004914,0.044259,-0.695221,-0.862124,0.928581,-0.369546,-0.589242,-0.279726,0.085018,-0.053983,-0.092723,-0.232566,0.282739,-0.140796,-0.509538,-0.572814,-0.367449,0.077891,0.558761,-1.601669,1.190430,-0.812081,-0.468823,-1.408285,0.072731,1.157785,-0.713492,0.891911,-0.012699,-0.120441,0.062114,-1.299628,-0.535384,-0.364196,-0.491852,-0.002980,-0.058762,0.184310,0.086284,0.679336,0.293603,-0.885304,-0.553118,-0.430784,-0.793638,0.496808,-0.258232,-0.228397,1.368574,0.073719,0.290179,-1.174055,-0.658397,-0.288330,-0.806625,0.883521,0.100386,-0.293573,0.273858,-0.113481,0.293298,-1.244626,-0.386910,0.256305,0.768412,-0.453215,-0.117349,-0.805962,-0.264906,-0.228226,-0.091025,0.959595,0.996202
-0.235408,-1.426109,-0.762822,0.018699,-0.527838,-0.244588,0.691889,1.051198,-2.125357,0.138251,-0.345790,-0.671686,-0.153387,0.675652,0.456924,-0.742659,-0.115589,0.193074,-0.046987,0.321531,-0.294205,-0.709724,0.455124,0.776324,0.336482,-0.743692,-0.485122,0.169489,-0.238261,-0.016690,-0.527938,-0.714634,-0.215395,-0.324700,-0.405036,0.280533,-0.281777,0.480747,-1.364207,-0.128285,-0.308863,-2.124164,0.581064,-0.229884,0.207297,0.200855,0.558100,0.684234,-0.529474,0.119566,-0.007313,-0.616972,0.146809,0.558562,-0.629671,0.613222,-0.352942,0.171438,0.378161,0.208912,-0.398470,1.299222,0.492248,-0.023526,-0.126483,0.390193,1.180371,0.647462,0.417081,-0.073064,0.048044,-0.377346,0.280155,-0.215026,-0.117450,0.062739,0.386677,0.105737,0.224397,0.000498,-0.665268,0.238258,-0.552787,-1.322639,0.437831,-0.080465,0.165181,0.003170,0.041948,0.489205,0.480565,0.441068,0.656961,0.224967,0.243324,0.419462,0.262910,-0.223045,0.337700,0.684014,-0.656858
-0.063088,0.163613,0.789747,0.504992,-0.077164,-0.301576,-0.393983,0.931619,-1.856153,-2.243690,-0.181997,0.343695,-1.949769,-0.639769,0.022698,0.859833,0.387722,0.380061,0.247383,-0.620113,-0.282552,-0.495242,-1.326843,-0.465836,0.142140,-0.342945,0.706982,-0.150394,0.442090,-0.046989,-0.125707,-0.462945,-0.522345,-0.421453,0.853851,-1.466968,-0.427148,0.013539,1.133908,-0.220847,-0.038743,1.030052,0.542282,-0.145837,0.224673,0.271508,-1.706982,0.870341,0.051497,0.808645,0.317693,-0.527611,0.134180,-0.570208,0.057989,0.274546,-0.148370,-0.368068,-0.347275,-1.544866,-1.711806,0.498415,-0.143483,-0.076120,0.724935,0.663285,-0.615558,-0.680260,-0.437223,0.757116,-1.523116,0.119892,0.398230,-0.675656,-0.314661,-0.451941,0.129234,-0.305512,0.562065,0.738882,0.097697,-0.098263,0.636020,-1.021906,0.115022,0.237291,-0.025529,-0.153262,-0.144551,-0.394482,-0.377667,-1.536756,-0.262177,-0.499054,0.260910,0.036094,-0.235730,-1.527096,-0.085906,-1.155502,-0.595566
0.066679,-0.347020,0.196126,-0.481762,-0.177101,-0.268231,-0.437780,0.067556,-0.207574,-0.320497,0.409207,-0.269117,-0.212756,-0.012235,-0.017099,-0.046294,0.196371,-0.480469,0.088902,-0.059037,-0.174282,0.183315,0.424914,0.310377,0.054521,-0.379259,-0.326971,0.368343,-0.238343,0.434118,-0.312224,0.044450,0.035326,0.403705,0.298156,0.174350,0.000937,0.153768,-0.437487,-0.469726,-0.146168,0.152407,-0.089213,-0.326046,0.104358,-0.171957,-0.011649,0.056541,-0.120579,-0.348109,0.462547,0.145996,-0.347380,-0.610040,0.222574,0.212122,-0.210970,-0.264306,-0.409131,-0.238207,0.327479,-0.115961,0.081225,0.283491,0.063991,0.151627,0.072844,-0.021497,-0.452696,0.148376,0.170921,-0.460173,-0.384197,-0.018136,-0.224998,0.336665,0.016169,0.073342,0.342124,-0.387686,-0.141664,-0.256822,-0.277907,-0.484440,-0.071886,0.082489,0.176290,-0.034742,0.050523,-0.123242,-0.255135,0.585418,0.504005,0.454039,-0.218145,0.124997,0.287217,-0.460037,0.043281,-0.215363,-0.768243
-0.275162,0.650807,0.194763,0.271431,-0.138628,1.284440,-0.725219,0.119106,-0.107383,1.191300,-0.132038,0.436765,-0.135370,-1.107824,1.005362,-1.069116,0.185476,0.106339,0.056833,1.424762,-0.174785,0.055302,-0.639866,-0.460841,-0.112781,0.398915,0.585149,0.454972,0.275520,-0.102075,-0.438882,-0.173024,0.711786,-0.218221,0.169738,0.878579,-0.451327,-0.432882,1.172517,-0.046190,0.000656,0.052552,0.806796,-0.283273,-0.303338,0.091449,-0.663298,-1.726176,-0.212585,-0.682392,0.168740,-0.229715,-0.125943,0.211449,-0.008629,0.344460,-0.351439,-0.012406,0.112686,-0.422303,-0.983293,-0.382706,0.153005,0.293443,-0.483110,-0.025679,0.602193,-1.371748,-0.082171,1.105451,0.781924,0.392331,1.076680,-0.424852,-0.008164,-0.302043,-0.442349,-2.622894,0.380743,-0.556809,0.974196,0.210796,0.448064,-0.767089,-0.048537,0.316408,-0.057024,-1.127885,-0.383389,-0.372859,0.205475,-0.179413,-0.871769,-0.385495,-0.569610,0.780219,0.175818,-1.191788,-0.345155,0.385213,-1.993070
0.101276,0.181915,-0.142935,0.567584,-0.187884,0.723867,0.378724,-0.288845,0.275232,0.264855,-0.145436,-0.293513,0.421541,0.244324,-0.510540,-0.446474,0.361110,-0.396982,0.163061,0.385299,0.153988,0.565597,-0.888609,-0.593113,-0.494568,-0.171774,-0.552015,-0.176315,0.242541,0.074102,-0.511364,-0.671787,-0.175277,0.199804,-0.355491,-0.362019,0.394253,0.173107,0.738443,-0.139149,-0.212821,-0.263146,0.151245,-0.534442,-0.353708,0.288537,-0.174313,-0.191823,-0.001405,0.252096,-0.489863,0.596135,-0.273003,0.048302,-0.025208,0.245459,-0.369655,-0.014725,0.894079,-0.065645,-0.481006,0.186047,0.103870,0.495767,-0.568196,-0.562823,1.212898,-0.876357,-0.434019,-1.175655,-1.245914,0.456572,0.509073,0.490586,0.444029,-0.380961,-0.326709,-0.239577,-0.753374,0.573341,0.460731,-0.407308,0.202744,-0.109184,0.108478,0.223987,0.242698,-0.935410,-0.210013,-0.440838,0.038226,-0.179216,-0.110120,0.485595,0.070443,-0.255476,-0.331639,-1.152319,-0.352660,-1.069686,-0.095498
-0.124186,0.436982,-0.237136,0.073046,0.216231,-0.287790,-0.543401,-1.144339,0.905366,0.380971,0.125782,-0.603834,0.671272,0.211702,0.946178,-0.815952,-0.259301,0.083878,-0.193417,-0.229404,-1.819165,0.612910,0.110324,0.354713,0.324732,0.306824,-0.500117,-0.322379,-0.256115,-0.609380,0.054388,0.048028,-0.411773,0.361518,-0.333373,0.631310,-0.063773,0.268418,-0.664883,0.481445,0.144398,-0.610067,0.641768,-0.044315,-0.140800,-0.123980,-0.144113,-0.369917,-0.553889,0.407306,-0.337467,0.855641,-0.450032,-0.847546,0.657120,-0.653000,-0.210952,-0.096393,0.328894,-0.044428,0.551709,-0.588491,0.041307,0.096522,-0.836706,0.051652,-1.368875,0.645362,-0.353298,0.613973,1.133562,0.023270,0.340579,-1.896001,-0.400784,-0.197887,-0.536553,-0.142895,-0.248950,-0.075895,-0.020945,0.235214,-1.100882,-1.272390,-0.366103,0.204488,-0.104786,0.035736,0.177755,-0.592252,0.191181,-0.800959,-0.381298,0.079943,-0.327097,0.295203,-0.053458,0.046046,0.200711,0.078878,0.581541
-0.475855,-0.130031,-0.922262,0.072783,1.295876,-0.903180,-0.223845,0.367861,0.811403,-0.173845,0.159841,-0.942998,0.168279,0.219444,-0.582051,0.693263,0.376247,-0.011040,0.447540,0.649752,-1.348010,-1.112509,-1.137979,-0.373966,0.276147,0.858872,0.009557,0.202649,0.305611,-0.094874,0.280663,0.023520,-1.298297,-0.205206,0.088563,-0.224733,-0.098168,0.388708,0.264754,0.470946,0.228538,0.400874,0.819744,0.769697,-0.191435,-0.342505,-0.438207,1.370128,-0.836487,0.492870,0.161446,-0.243982,-0.343878,-0.007564,0.086654,-0.970994,0.178953,0.400174,-1.337073,-2.118084,-0.604434,0.747998,0.492950,0.319670,0.614475,-1.122675,-0.305540,0.463760,-0.083605,0.477395,0.624591,-0.328822,-0.045861,-0.084564,-0.361049,-0.021520,0.404062,0.036665,0.471554,0.484514,-0.506764,-0.345027,0.920218,0.276645,0.461040,0.033283,-0.270500,0.018178,0.222068,-0.245858,-0.347238,-1.025892,-0.692584,0.378811,0.410129,-0.640773,0.387699,-1.233924,-0.256042,-1.390185,-2.058203
0.275695,-0.904071,-0.125998,-0.703140,0.249119,0.994642,-0.427726,-0.148361,-0.001580,-0.511504,0.392972,-0.881021,-0.225025,-0.565511,-1.015526,-1.306456,0.165670,-0.214696,-0.134824,1.037659,0.489351,-1.225119,-1.032604,-0.274881,0.400571,0.583229,0.213785,-0.043448,-0.386986,0.205316,0.085556,0.870799,-2.141753,-0.242749,0.742814,0.336586,0.199788,-0.115227,-1.336018,-0.180624,0.090442,-1.366405,0.260966,0.528484,0.374586,-0.057176,1.364637,-0.554176,-1.316112,-1.481647,-0.577861,0.578939,-0.016825,0.377349,-0.601663,0.322129,0.333732,-0.301660,0.070229,0.417799,-0.264172,0.568359,-0.056566,-0.002292,-0.050056,-0.908748,0.114881,0.072416,0.309595,-0.520636,-0.350562,0.303919,0.217250,0.377886,0.381954,0.002503,0.462811,-0.121838,-0.430794,-1.246161,0.777552,0.394998,0.362774,0.354352,-0.147610,-0.484474,0.010849,-0.887131,0.172750,1.273769,-0.010411,0.754010,0.589200,-0.377499,0.464976,-0.853747,0.177248,-1.036745,0.328288,1.040401,-0.739083
0.489410,-0.245116,-0.730211,-0.555443,-0.283310,0.937024,-0.417303,0.679587,-0.143068,-1.156208,-0.447691,-0.876049,-0.099963,-1.349351,-0.264666,0.074755,0.152211,0.450163,-0.038526,0.057981,-0.771949,-0.419273,0.338095,-0.194842,-0.028275,1.396516,0.469725,0.430936,-0.291577,-0.444722,-0.245299,-0.232799,1.249115,-0.298303,-0.645809,-2.330701,0.261315,0.105792,-0.272164,-0.288507,-0.082751,1.048192,-0.108043,-0.754539,0.410947,-0.086871,0.614445,0.291670,0.412997,-0.416333,0.001040,0.348130,0.455108,-0.552039,-0.584933,-0.993315,0.493196,0.312830,-1.223155,-0.353973,-0.097417,-1.628569,-0.115680,0.295436,-0.546740,-0.822332,-0.072788,-0.636473,-0.189993,0.736886,0.303618,0.314631,0.469347,-0.223254,-0.068743,-0.297471,-1.048879,-0.228266,0.340940,-1.109133,0.671622,-0.379138,-0.173388,0.128138,0.306063,0.030227,-0.164815,-0.045483,0.450255,-0.941134,-0.313755,0.133350,0.058910,-0.188345,-0.509995,0.591492,-0.042296,-0.265419,-0.383668,0.884474,-1.100422
0.251274,-0.420766,1.331619,0.760599,-0.053693,-0.607039,-0.676707,0.018163,-0.996862,-0.089791,0.403775,-0.587866,1.204428,-0.306356,-0.179348,-0.903176,0.299341,-0.252299,0.227287,-0.265973,-0.953886,0.022878,0.537916,1.039973,0.283868,0.619277,1.455832,0.104430,0.195592,-0.120781,-0.304508,-1.264674,0.083689,0.191043,-1.171786,-0.423711,0.126339,-0.025101,-0.694264,0.058245,0.432981,-1.737098,-0.440816,0.629304,-0.327754,-0.125843,0.490804,0.216005,0.296125,-0.494416,0.252305,0.909464,-0.057207,-0.664131,-0.509715,-1.333878,-0.176229,-0.175344,-1.540077,-0.959955,0.958783,-0.746876,-0.440825,0.285573,-0.922352,0.551758,0.430397,0.039607,-0.091296,-0.019719,0.169040,0.141255,-0.491952,-0.755186,0.354457,-0.314783,-0.699659,-0.842034,-0.085672,-0.496023,-0.484633,-0.427412,0.517552,-0.875024,0.088461,0.347722,-0.205924,0.159775,-0.411832,0.146076,0.069020,0.013850,-0.703033,-0.040422,-0.214949,-0.827524,-0.012963,-1.104774,0.027191,-0.078924,-0.342793
-0.129583,0.188835,-0.188604,-0.618116,0.037818,0.462649,-0.796530,-0.402046,0.429597,0.175760,-0.356197,0.647825,0.827112,-0.872381,0.354374,0.370924,-0.476470,0.278145,0.474702,-0.007590,0.869823,0.809613,1.631807,-0.056672,0.193869,-0.481593,2.020594,0.382093,0.126488,-0.295746,0.076047,0.182230,0.693759,-0.231589,0.046618,0.626825,0.212225,0.280178,-0.024337,-0.057726,-0.304468,-0.524113,0.106421,0.298421,-0.456374,-0.178030,0.479541,-0.789961,0.501446,-0.703247,-0.374289,-0.126109,0.475773,-0.881389,-1.567907,0.025939,0.082979,0.076342,-0.190217,0.155964,1.384291,-1.201892,0.418516,0.434946,1.210528,-0.238177,0.311661,0.213080,0.392239,-1.396090,1.427381,-0.171468,-0.766638,-0.854821,0.154164,-0.321726,-0.222122,-0.850994,-0.175322,-1.422301,-0.511609,0.432583,-0.386296,-0.636251,-0.238127,-0.048897,-0.189321,-0.240081,-0.313684,1.335913,-0.002263,1.393424,0.427916,0.441527,-0.199674,-0.726936,0.375177,-0.124030,0.279183,0.048901,-1.871358
0.462351,0.376924,-1.567641,-1.342996,-0.170867,0.570616,0.338801,0.975984,1.028207,0.554894,-0.307642,-1.591512,-0.654962,0.722455,-1.193760,-0.397637,0.396573,0.405495,-0.057879,0.930339,-0.178637,-1.305835,0.721863,0.350540,-0.345515,-1.109852,-0.303489,0.383122,-0.111534,0.453501,-0.040659,-0.762763,0.966879,0.283739,0.868981,0.082220,-0.073888,-0.401914,0.049099,0.036515,-0.416288,-0.689997,0.423631,0.408665,0.163654,-0.354473,0.839063,0.142818,0.292207,-0.107360,-0.044715,-0.162539,0.275170,-0.338458,-0.014917,-0.766898,0.077734,-0.099384,-0.281664,0.643677,-0.336767,-1.375999,-0.440672,-0.282552,-0.573689,0.355217,0.319993,0.669514,0.364132,-0.967248,0.007698,-0.465789,-0.330476,-0.264368,0.199057,-0.250416,-0.186773,0.478917,-0.971486,-0.664890,-0.236771,0.232954,0.116755,-0.306107,-0.231755,-0.414554,0.014145,-0.302093,0.085925,-0.083415,0.148901,0.370970,-0.176402,-0.496826,-0.342320,-0.101526,0.121984,0.718467,0.356609,0.068361,-1.562108
0.334659,-0.287986,0.451368,-1.163569,-0.239964,0.509209,-0.867411,0.193301,0.518954,0.792681,0.284936,0.268718,-0.127938,0.344387,0.624578,-1.521244,0.013169,0.336374,0.387187,0.469274,0.485174,0.220129,-0.123551,0.265707,0.010788,0.091402,1.783659,0.168043,-0.743425,-0.321774,-0.014911,-0.065296,0.112504,0.362184,-1.500749,1.606256,0.359502,-0.473724,0.046432,0.457793,0.076708,-2.327380,0.547756,-0.472963,-0.494546,0.194784,-0.724484,1.366848,1.581947,-1.177226,0.328802,-0.098552,0.023576,-0.682713,-0.901936,0.159373,-0.135210,0.367183,0.445618,0.465907,1.861016,-0.900842,0.368679,-0.061617,0.699481,0.616243,0.524478,-0.949380,0.397427,-0.161706,0.511944,-0.192557,0.300944,1.366761,0.276788,0.298701,0.027234,0.362711,0.104242,0.287236,-0.578386,-0.274150,0.291012,-0.630153,-0.250057,-0.418849,0.344691,-0.738654,-0.384945,-0.259992,0.492794,0.210504,0.401735,0.441771,0.753093,-0.255684,-0.517237,0.546870,-0.388846,0.783877,-2.583997
0.297034,0.604076,0.242935,-0.757091,-0.298957,0.230050,-0.264217,-0.329401,0.407103,-0.389669,-0.340846,0.103126,0.361442,0.357669,-0.309733,-0.090929,0.338893,-0.388058,-0.460631,0.207821,-0.461248,-0.006480,0.025651,0.625415,0.297143,-0.269821,0.167247,0.112903,-0.223317,-0.280307,0.432470,-0.390151,0.120353,-0.349513,-0.397960,-0.407084,0.458129,-0.153462,-0.182191,-0.246696,0.069994,0.193226,0.099449,0.173652,-0.339290,-0.075762,-0.153415,0.088914,-0.011833,-0.637834,-0.039242,-0.281978,-0.185995,0.101783,-0.196049,-0.289873,0.449824,-0.382412,-0.207978,-0.412945,0.451254,-0.284032,-0.419523,-0.214499,-0.154143,-0.420865,0.247670,0.474137,0.301843,-0.186587,-0.402893,0.238365,-0.267434,0.295729,0.273186,0.106667,0.260707,-0.170572,0.053529,0.102114,-0.140501,0.194205,-0.225073,-0.197940,0.142293,-0.254082,-0.071734,-0.176984,-0.086413,-0.112899,0.107614,-0.371345,0.277434,-0.182638,0.170860,-0.142877,-0.405237,-0.791022,0.222004,0.360727,-0.208469
-0.348741,-0.541039,1.232208,-0.487389,-0.512488,0.255231,-0.279345,0.089822,0.782888,-0.512727,0.480529,0.027531,-1.096577,0.960943,0.097418,0.097927,-0.312037,0.014826,-0.033283,-0.866460,0.214836,0.457124,-0.629153,-0.841325,0.163045,0.120034,0.913665,-0.035528,0.536506,-0.235509,-0.245195,0.244821,0.021909,-0.481995,0.329150,0.365461,0.121837,-0.177787,0.417681,-0.325587,0.338862,0.552489,0.226430,-0.438013,-0.211120,-0.206748,-1.271256,-0.592924,-0.110741,0.412115,-0.532216,0.080056,0.406565,-0.832045,0.039976,-0.326950,0.411920,0.011368,0.196317,-0.983481,-0.196748,0.976943,-0.480834,0.003547,-0.703927,-0.238708,-0.827064,0.051178,-0.477538,-0.676528,0.671952,0.429807,0.603029,-0.756522,0.495117,-0.464403,-0.883717,-0.899143,-0.316914,-1.311197,0.815941,-0.148043,1.015013,1.111882,-0.192774,-0.325664,-0.241967,-0.147696,-0.349361,-0.277211,0.117900,-0.583869,-1.083772,-0.069445,-0.482407,-1.718854,-0.496482,1.096526,0.109682,-1.482143,1.411456
0.369092,0.055961,0.116285,0.961042,-0.211796,-1.026090,0.539753,-1.008387,0.227130,0.617437,0.484649,-0.687031,-0.722904,-0.414279,0.284643,0.085100,-0.397183,0.457301,-0.468170,0.633000,-1.032022,0.105466,-0.849693,0.296609,-0.480956,0.421965,0.213239,0.088151,0.189098,0.097052,0.219070,-0.362435,-0.620885,0.376477,-1.194546,-0.801173,0.140315,-0.172256,1.125768,-0.469543,0.289605,1.118237,0.295936,-0.408658,-0.276826,-0.052692,-1.197588,0.426242,0.487877,-2.026043,0.067130,-0.111223,0.017939,0.507369,1.086759,0.371919,0.158662,-0.390652,0.124741,-0.808294,0.683883,-2.719993,-0.000259,-0.356593,0.663553,-0.838285,1.629676,-0.176949,-0.281487,-0.262781,0.639554,0.195364,0.188184,-0.934388,-0.003891,-0.430824,0.501731,-1.817844,0.257859,0.184032,0.108213,0.315017,-0.682656,0.101323,0.230068,-0.470602,0.108569,0.060271,0.170064,-0.995626,0.327180,-0.431918,0.698252,-0.071123,-0.048270,0.790512,-0.181935,-0.087965,0.381475,-0.534971,-0.082348
-0.365605,-0.257485,-0.023845,0.803679,0.589011,-0.792464,0.885377,1.151395,-0.241190,0.469184,-0.333033,0.859341,-0.108638,0.075604,-0.497882,-1.449875,-0.350734,-0.132553,0.331192,-0.523758,-1.642101,1.616259,0.087544,0.505428,-0.295526,0.361643,0.290021,-0.104655,0.165911,-0.493942,0.206095,0.135241,-0.337110,-0.017844,-0.956368,0.055422,-0.196176,0.271600,-0.669160,0.476714,0.155110,-0.711040,1.292370,0.479955,0.178615,-0.097146,-1.274990,0.388811,-0.755525,-0.837787,0.415416,1.427719,-0.335225,-1.423378,-0.601464,-1.077214,-0.167528,0.334407,0.521500,-0.704700,1.066163,-0.374874,0.111164,0.482943,-0.954706,-0.030492,-0.174768,1.775390,0.077532,0.919357,-0.203146,0.001663,0.669446,-0.001288,0.091693,0.377409,-1.184873,-0.446531,0.654006,-0.030980,0.131232,-0.282241,-0.128150,-1.198627,0.088508,-0.041860,0.292810,0.680850,0.034806,-0.197250,-0.165667,-0.835068,0.093799,0.246055,0.069645,-0.682673,-0.465100,-0.921924,0.226160,-0.393554,-0.794593
-0.271168,0.613128,-0.345925,0.022823,-0.019939,0.249686,0.404975,-0.224719,1.028557,0.632040,0.238334,-0.799623,1.239261,0.204826,0.146465,0.779767,-0.394711,-0.106649,-0.148552,-0.248663,-0.645699,-0.300673,0.268905,0.158575,-0.456694,-0.630519,-0.125829,-0.197569,0.417179,0.077831,0.626351,0.297163,-0.113737,0.464064,-0.850853,0.266235,-0.153143,0.273004,0.406313,0.477203,-0.063952,0.350437,-0.451488,0.305369,-0.091180,0.181814,-0.094011,0.269122,1.087922,0.419546,-0.404996,-1.098838,-0.137879,-0.625894,0.142200,0.307760,0.029679,-0.468749,-0.143486,-1.377883,-0.335720,-0.038357,0.288965,0.178417,1.058063,-0.406991,-0.248381,0.433608,0.095965,0.023867,0.614587,0.406064,-0.407676,0.080748,0.211936,0.233205,0.124864,0.862364,0.901284,0.912452,0.003996,0.040703,0.345751,-1.282664,0.422261,0.431955,0.266594,-0.899982,-0.172536,-1.384966,0.012375,-0.451462,0.527075,-0.118885,0.509274,0.000789,0.223659,0.755359,0.171868,-1.272509,-3.747890
0.023240,-0.125121,-0.026625,0.307108,-0.810788,-0.362938,0.049427,-1.051043,-0.118393,1.583909,-0.438719,-0.462123,0.760240,-1.137088,0.259050,-1.309601,-0.453703,0.046688,-0.122338,0.132791,0.091521,0.454084,-0.042640,-0.124049,-0.125843,-0.370868,0.106583,0.049373,0.212911,0.159683,0.406508,-0.305415,-0.520605,0.020606,0.932474,0.356851,-0.406418,-0.357397,0.599747,0.311274,0.368648,-0.379040,1.227543,-0.067590,0.298265,0.214225,-0.625401,-1.632991,-0.261173,0.488777,0.154369,-0.248020,-0.329450,0.604969,0.610609,-0.743619,-0.391597,-0.462828,0.826685,0.857685,-0.001622,0.060366,0.205313,-0.321095,-0.170258,0.608217,-0.513846,-1.088726,0.443266,-1.496049,-1.123705,-0.173940,-0.323434,-0.399244,-0.477569,0.362117,0.124462,-0.564797,0.790791,-0.430813,-1.033134,0.182586,-0.557026,-0.635829,0.291659,-0.270042,-0.435879,-2.063187,-0.178304,-0.468775,0.108793,0.713912,-0.553580,0.147420,0.103985,0.336482,0.046463,-0.487801,-0.479853,-1.038552,1.580694
0.213422,0.085329,1.283394,0.139196,0.495187,0.416741,0.472517,-0.495442,-0.805183,-1.250786,-0.194845,0.532629,0.835302,-1.374188,-0.738547,0.524465,-0.489624,0.318685,-0.422186,0.372817,0.534615,-0.322323,-0.345794,0.483559,-0.258568,-0.218937,-1.527523,0.048614,0.594969,0.301860,0.426552,-0.519546,-0.631827,0.157322,1.196903,-1.046559,0.410922,-0.201331,-0.184966,-0.256706,-0.478668,0.898245,-0.432413,-0.306154,0.260244,0.089635,-1.175330,0.252423,-0.144805,1.089711,0.210685,-0.337389,0.095004,0.911950,0.112273,-0.854310,-0.501105,0.092792,-0.278848,0.795069,-0.279640,0.655769,-0.350612,-0.519064,1.508028,0.422127,-0.798237,0.052496,-0.373226,-1.303523,-0.392811,-0.142567,-1.086664,-0.736156,0.400815,-0.299351,0.904796,-0.529435,-0.424211,0.530459,-1.300698,0.301615,-1.397089,0.779799,-0.095686,0.184592,0.119737,-1.143525,-0.375973,1.403863,-0.057803,-0.393380,-0.060464,-0.459502,-0.193852,-0.366360,0.220893,-0.848449,0.200686,-0.594848,-0.392476
0.384766,0.644392,0.690942,-0.839269,0.747035,0.562076,0.519057,-0.042258,1.205813,-0.749006,-0.036027,1.214621,-1.274260,-1.498804,-0.618603,0.395086,0.113788,-0.479623,0.098337,0.747199,-0.156446,0.318711,-0.580475,0.229215,-0.145314,-1.146113,1.510976,0.357197,0.135587,-0.210759,0.380811,-0.860622,0.184875,0.415373,1.160617,-0.813130,0.227205,-0.151259,-0.433815,-0.178304,-0.118824,0.327514,0.508554,1.711056,-0.124406,0.300806,0.894460,-0.255784,-0.805165,1.022349,0.444884,-0.138699,-0.388455,-0.608479,-0.729565,-1.443852,-0.021563,0.117359,-1.413670,-0.406031,-0.038208,1.981321,-0.389706,-0.397493,-0.500724,0.807697,-0.851461,0.954539,-0.399411,-0.188267,-1.140588,-0.183767,0.231767,-0.157705,0.364681,-0.329490,0.448278,-1.058950,-0.570879,-1.622098,1.612051,-0.003594,0.556205,0.489863,-0.481439,-0.263382,0.293085,-0.290250,-0.343745,0.368441,0.037876,-1.213565,0.677171,0.165487,0.420044,-1.526892,-0.033655,-1.603132,0.225997,-0.066631,-3.762726
0.273963,0.657675,-0.013130,0.181999,0.639355,-0.996964,0.767175,-1.120839,-0.375652,1.483206,-0.270104,0.088410,-0.995079,-0.548328,-0.796708,0.827228,-0.254173,-0.326224,0.183528,-0.912667,0.697709,0.469766,-0.067647,0.884029,-0.013504,-0.470657,-0.253869,0.467040,-0.308768,0.209328,1.022828,-0.743805,0.602611,-0.234904,0.411898,-1.182392,0.111393,-0.293912,0.369027,0.431364,0.339564,1.012381,-0.578439,0.116219,0.355115,0.389123,0.435327,-0.305111,0.404457,-0.808984,-0.195392,-0.692979,0.213185,0.353873,-0.233464,-1.595147,0.497845,0.234611,-0.565164,-0.900272,-1.232653,1.629585,-0.269646,0.504895,0.323152,-1.435127,0.063659,0.585631,0.003861,-1.733009,0.970473,0.499359,-1.025272,-0.833827,0.090014,-0.241821,0.058552,-0.137831,-0.354755,-0.460354,0.218260,0.069424,-0.891778,0.101600,-0.481454,0.028605,0.197532,-1.025133,0.358760,-0.967265,-0.291188,-0.401693,-0.372893,0.236625,-0.028080,0.438078,-0.368349,-0.988254,0.216857,-2.004656,-0.248639
0.258626,-0.477787,0.514388,-1.259128,-0.633198,1.558068,-0.286207,0.385295,0.618591,-1.297841,0.464232,0.866518,-1.437555,0.784236,-0.633412,0.006253,0.235191,-0.046426,-0.187996,0.539190,-0.505722,-0.139404,-0.079500,-1.468623,-0.173666,0.301027,-1.055933,-0.294078,0.328490,-0.225766,-0.906736,-0.345813,-0.094893,0.309179,-0.094689,0.496184,-0.478933,-0.025071,-0.120656,-0.337062,-0.124134,0.817523,-0.513678,0.244523,-0.071417,-0.242850,-0.047966,-1.658832,0.308338,-0.284949,-0.347525,0.045184,-0.131004,0.338893,-0.428725,-0.852018,0.489567,0.014634,0.371389,-1.048711,-0.807802,1.032849,0.214988,-0.321214,-0.595787,1.070755,0.997305,-1.274022,-0.373867,0.700908,-0.646304,0.116779,0.452731,0.356341,0.322535,-0.125173,0.071337,-0.194885,-0.447750,-1.447067,0.598985,-0.146901,-1.247464,-0.168611,-0.307421,-0.262815,-0.123584,-1.120793,0.003708,0.305384,0.460095,-1.145780,0.114708,-0.391568,-0.541321,-0.967284,0.329882,0.618512,0.211848,-0.540521,1.647929
0.285322,-1.077986,0.741576,-2.071096,-0.092001,-0.560590,-0.991894,0.958292,-0.076968,-0.840230,0.387143,0.170619,0.135929,-0.646531,0.617133,0.965105,-0.026597,0.397222,-0.256627,-1.680781,0.145980,0.338711,-0.495762,0.194365,0.151204,-0.143227,0.091510,-0.278233,0.243440,0.251789,-0.631512,0.196811,-0.719288,-0.261484,0.558003,-0.609171,0.453685,-0.441702,-0.640799,-0.499084,0.457793,-0.241516,-0.902625,0.052503,-0.311268,-0.140776,-0.248502,-0.155534,-0.351589,-0.542268,-0.383464,-0.119675,0.229180,-0.365174,-0.300393,0.827226,0.144793,-0.334498,0.437707,-0.406210,-0.411889,1.461511,0.167592,-0.126347,0.499355,-0.792196,-0.376444,-0.925692,0.344722,-0.144440,-0.998576,-0.271447,-0.803539,0.045673,0.121448,-0.060880,-0.020382,0.909165,-0.240557,0.225168,0.617190,0.498059,-0.366648,-0.466111,0.102332,-0.117534,0.166372,-0.254128,-0.138173,0.928681,0.047882,-1.615252,0.487961,-0.032701,0.274429,-3.016022,-0.049510,0.592364,-0.317170,0.497253,1.911039
-0.249535,-0.183320,-0.072202,0.040848,-0.147781,-0.544552,0.192828,0.428744,-0.552989,-0.613744,0.074419,0.016255,0.050707,-0.343699,-0.018536,-0.011202,-0.448271,0.375998,-0.317023,-0.406274,0.234939,0.145520,0.232249,0.117602,0.492676,-0.059078,-0.422193,-0.327662,0.410741,0.247535,-0.139910,0.499236,-0.295890,0.270684,0.205869,0.538123,-0.317703,0.388516,-0.079487,-0.254234,-0.136494,-0.300565,0.336241,-0.423398,-0.086016,0.119782,0.066062,-0.160865,-0.456437,-0.537642,0.399578,0.151245,-0.449089,0.133058,0.137800,0.190360,-0.121061,0.081317,-0.256300,-0.379579,-0.377119,-0.228087,-0.232292,-0.337467,0.279220,-0.198187,-0.012685,0.390274,-0.312067,0.736414,-0.314276,-0.392117,0.425775,0.182385,-0.431120,0.276972,-0.160874,0.432057,0.238366,-0.038416,-0.046432,0.246245,-0.331094,-0.530508,0.196304,0.038915,0.306360,-0.278277,0.257378,-0.352051,0.361118,-0.126653,-0.385893,0.277825,0.126617,0.424679,-0.028542,-0.157766,0.426327,-0.402666,-0.389851
-0.352759,-0.219895,-0.647195,1.457410,-1.090188,-0.273220,0.344011,-0.824620,-1.279996,-0.412677,-0.356014,1.426877,-0.567084,-0.055975,-0.998267,-1.032890,-0.297052,-0.484377,0.301151,-0.944988,-0.358925,-1.002131,-0.521976,0.472033,0.472716,-0.366767,0.392754,-0.283624,0.116856,-0.159647,0.105634,0.764394,-1.177792,-0.386927,0.253142,-1.639496,-0.117185,0.415253,0.593216,0.164022,-0.480316,0.386840,-0.150173,-1.307999,0.397541,-0.416929,-1.520093,-0.573756,-0.210646,-1.025580,0.237308,-0.757542,-0.273186,-0.429497,-1.003233,-0.076763,0.267806,0.204520,0.376068,-2.470755,0.327666,-1.941767,0.061754,-0.384065,-0.603439,-0.842945,-0.562020,0.587572,-0.104816,0.038702,-0.534246,0.005173,-0.849107,-0.101595,0.193381,-0.267492,-0.731439,-1.072050,1.242636,-1.121152,-0.658980,-0.442231,-0.287524,0.472124,0.085385,0.223592,0.387875,0.316338,-0.386319,0.370562,0.277153,-0.442160,-0.394736,0.254753,0.106274,0.226092,0.132956,-0.150259,-0.479735,-1.289608,2.458805
0.28560864,0.09917274,-0.13290149,-0.42517296,-0.25768284,0.36764615,-0.04465200,-0.08995456,-0.44760503,0.29855867,-0.15928184,0.36103110,0.01062093,-0.22052452,-0.36671692,-0.08853254,-0.49366510
-0.80891006,-0.34624782,0.00934232,1.05040322,-1.06308298,-0.25590767,-4.75021195,-1.60621879,1.44940139,-3.47611079,-2.20533015,3.16098659,-2.91438059,-1.71585480,3.21227890,0.95294897,2.98042478
-0.89024843,-2.18517793,-1.25488991,0.85730801,-1.45946247,0.18801773,0.11492762,4.24156969,-0.88496937,-0.18547874,2.61838450,1.88755397,-3.80279570,-0.81957059,0.03474997,1.07422885,-1.63683749
-1.40637902,1.16429683,-0.32234358,-1.42309024,3.28422646,-0.65749651,-5.76666573,0.94263817,5.54798123,-2.21613108,3.36582599,-3.27415556,0.27935789,-1.37046186,-3.49597240,4.74446243,1.59036811
2.52746433,-1.21271027,-0.38107264,-0.91673775,-0.14570084,2.74367695,-1.48371041,-2.44067279,2.81438204,0.87555309,-0.18899001,-3.95303717,-1.11773732,0.77550126,6.82607128,-2.61853246,-0.34612962
-0.55856217,-2.95667586,-0.60608702,1.61426854,2.40607716,-1.45280217,-0.98696746,-2.33442532,-4.16599199,-0.65537591,-0.32021179,3.12508591,2.53411578,2.91142636,0.23526754,-1.25097629,0.33097453
1.22383322,-0.50687137,-0.29615279,-0.92669430,-0.71716490,-0.19388223,3.03836408,-2.88035871,1.22325903,-0.65242361,1.76294572,-0.69366283,-2.40787574,2.41233282,-3.26507993,-1.89012744,-1.60604880
-2.66847172,0.27982754,-4.22591681,-0.55527028,4.16576869,-5.53348494,1.55364547,3.36461958,0.66201669,0.09234851,0.59956874,-1.70653369,-1.13597262,-0.12535292,3.99618624,-0.69293285,1.25330820
-1.34388953,-2.17902029,1.06877847,2.06132716,-0.34155585,-0.40282261,-2.32195211,-8.22677811,-1.98260128,0.32053917,-0.45127105,5.27540244,-0.45815520,4.65405599,5.03880113,0.94838792,-2.30771209
0.48688466,0.00295795,3.63137291,0.67925899,-3.07171794,1.91725842,-3.84427313,-4.14743701,-0.68224393,-6.64277661,-1.11219538,2.21789686,0.47574089,-1.35585410,-4.07412439,-5.81899257,9.93699743
0.16191595,0.28981903,-0.09797967,-0.43649098,0.21608631,-0.14937284,-0.47433393,0.13722648,-0.15272988,-0.42349010,0.46792505,-0.27291177,-0.25392926,-0.08372753,0.03743095,-0.27169103,-0.25435652
-2.15748384,-1.58501365,2.97617406,2.42191832,-1.09788033,-0.93538808,-2.94214700,5.37952206,2.31413200,4.19553120,-1.20081202,0.77614244,-3.90728453,-5.84248917,-1.60491796,-1.06593669,2.20825254
-0.47975563,0.55680879,1.38360596,-0.61727772,-3.13303361,2.51880414,1.83590006,1.05972856,10.16300387,1.18351372,-0.83585438,1.36820369,3.45164804,0.92261875,-7.49273960,-4.11587307,-3.43322827
-0.72525965,0.35943570,-0.23794426,-5.18082001,3.09399363,-0.57961227,-1.33100165,-0.14853215,-2.08520420,0.97768214,1.80172226,2.52551963,3.82001690,0.86742970,1.08431903,3.12103675,-2.86881093
0.01728160,1.49003026,1.31548763,-0.16946321,2.21101625,1.61262516,1.61630897,-7.10866128,2.29181433,2.36077093,-0.63632389,-0.74627173,2.06328291,-0.05616098,-1.24766103,-2.26376395,-2.19687622
3.06894523,-0.29286994,2.10955567,-0.04759189,-2.84591758,-0.57335879,2.90563183,-3.38094633,-0.12088196,0.29068893,1.91920610,-1.29413518,-5.38493013,2.11997717,5.59794158,2.82902296,-3.66567947
-0.19936216,-0.08339183,0.24849696,0.23754082,-0.26973785,-0.02970977,-0.39226966,-0.11754204,-0.36266671,0.31792657,-0.38540300,-0.09620960,0.14387951,0.38268685,-0.46737571,-0.43053987,-0.18874172
0.34945447,-0.09011312,-0.30800047,0.30377174,-0.19156302,0.33283381,-0.36763521,0.23017648,-0.01259878,-0.36455260,-0.32740118,-0.53783190,0.29989161,0.41266275,0.41268149,0.11494965,-0.48879079
0.36441164,0.26418795,-0.19853881,-0.36026536,0.41303896,-0.31168348,-0.50334812,0.03052444,0.18385943,-0.28642563,0.22672819,-0.44940777,-0.11338939,-0.30510496,-0.00927430,0.18315017,0.05811735
-2.35237843,-2.36254282,-1.56818980,3.11038311,2.84236711,3.31917101,0.36447895,-1.70751218,-1.79074478,-3.38711751,1.93494529,0.45229771,-0.35262764,2.66851151,-2.18562947,0.59426088,-1.30530610
3.87115774,1.56290692,1.04051183,-2.56481603,-1.07943319,-4.99589434,-0.81179582,2.55384327,-1.91049950,-0.26192122,-4.46412449,-1.81807637,-1.58572476,3.66821107,-0.06673956,1.16452489,2.74622495
-0.59183370,-0.20269674,3.20693024,0.22542530,-0.61184651,-3.99139028,-2.67073446,-1.32228571,-2.80058401,3.45459934,2.59351307,2.80390511,1.15017875,-1.53621696,-3.86401533,0.49421705,0.54415704
0.74907458,-0.58153922,-0.03569756,-1.44604365,-1.61174949,-4.78125831,-0.96747447,-0.08657058,-0.13784119,-1.03934120,5.70463765,2.48886870,1.20037084,0.80508563,0.87947068,1.03350238,-1.43328672
-0.96679355,1.94598674,0.66016373,1.75911156,-3.43181132,3.61575961,-1.42388475,0.88352328,-1.22829100,-3.99351932,3.71577199,0.94116195,-1.72039619,-2.30234196,1.25756559,-1.42120482,0.72595564
0.04222236,-0.00596637,0.49325541,-0.11925108,-0.14094974,-0.16832484,-0.42724387,0.38305307,0.38802759,0.13563952,0.14836573,-0.41305277,-0.31820124,0.08800012,-0.17952513,-0.07444990,-0.45501572
-4.35732652,-0.43030357,-2.05690568,0.38332753,4.77922543,-0.59175691,-2.61721191,1.79040443,3.37180007,0.95559183,2.51682000,-5.97169808,0.95776493,3.95523341,-2.23593320,-1.88927623,1.85622166
0.60339851,-0.11605321,-0.84425802,0.18233876,-0.90427472,-3.97375254,-0.05809801,5.68534349,-3.10048888,-1.61541066,0.50543513,-0.15787163,-0.38616559,-0.69640841,-3.36260370,3.48706551,-0.04061611
-0.16868270,-0.36190729,-0.22608850,0.23379380,0.14067646,0.30687831,0.23393109,-0.33610364,0.25108847,-0.36437637,0.12864203,-0.16803371,-0.23253362,0.13511977,0.17907838,-0.43786982,-0.18223706
-1.21284231,-1.06782527,-1.53429194,-1.40507882,-0.50752780,0.11216026,-0.30596230,0.07812176,0.27360232,0.18426628,-0.71446989,0.26239723,-0.72566775,0.49777122,0.06126175,1.22833759,0.19107925
-0.09136062,0.34741406,-0.64088585,0.21307258,0.14448905,-0.88228749,-0.34313566,0.75171795,1.13599366,-0.51118257,-0.42411795,0.64827697,-0.52334104,0.18238869,-0.20099888,-0.30095584,-0.11375008
-0.81885211,-0.34114629,0.05060868,-0.50832785,-2.24685444,-0.56829093,-0.47452295,-2.40980870,-0.28122415,0.19191394,2.31539636,-0.58944865,-2.65132886,2.18914948,-1.40992651,-1.06161356,-0.07017193
-0.90078783,-0.58001257,-1.08525943,1.17154012,-0.78686444,-1.21344654,2.07737218,0.61476322,1.00625051,-0.27652222,-5.00109336,-2.66462885,0.76255329,-1.60258750,-1.26541262,-2.50535928,5.84185751
1.77957676,-1.55444805,-0.23812544,1.69613057,-1.51162834,-1.86233811,2.47557844,-1.83046573,0.88985436,-2.76618207,3.54592692,-3.28033600,1.62855377,3.87825639,-5.30182794,-0.67013893,0.54384429
-0.10640784,-0.06087354,0.21723896,0.00931852,-0.11660361,0.25021549,0.21209312,-0.13684939,-0.47571712,-0.47176226,-0.31466336,-0.39286043,-0.50813565,-0.15653160,-0.21119546,0.24385415,0.24334311
1.67018388,0.35539882,-0.24549979,2.26661968,-6.33470271,1.35407801,1.55765289,-0.66479180,-3.47787123,-0.82622728,-4.50397658,0.27388321,-5.93796803,1.78924628,-0.03534658,-0.24053813,2.56413289
1.70287454,0.73435386,2.37253819,-1.77956057,-1.62007573,4.92906202,3.39379341,-2.57208468,-0.81405319,1.82318314,-5.38519201,-2.56500948,3.40976945,1.59727169,-5.21864118,-5.97493194,0.10614561
0.16092092,0.31817916,-0.47180542,-0.22000653,0.46045577,0.08369925,0.12231492,-0.45196933,0.22393727,-0.14487370,-0.47665803,-0.35859147,0.36913223,0.11139867,0.44004034,-0.19342669,-0.46576632
-0.38411247,0.05641644,-0.49267102,0.34385880,-0.39192065,0.37118598,-0.24283673,0.09029447,0.20878618,0.41220817,0.26096499,-0.46163788,-0.47234005,0.12304717,-0.20583317,-0.08668955,-0.45426361
-2.10206068,-0.36309821,2.56889450,-0.27644995,-1.42297153,-1.89191536,-1.96067220,-1.60211554,0.31638334,-0.81449741,-2.56850012,-0.98662650,-3.08542489,-1.90014594,1.49234998,4.57412124,3.85286271
-0.10582293,-0.20821253,0.27776421,-0.19695120,-0.16335032,-0.39614551,-0.49353008,-0.49441511,0.24886319,0.22267830,-0.28844569,-0.15498825,-0.48635823,0.43585009,0.15572069,0.25435652,-0.44509720
-0.21913816,-0.38698996,0.40560625,-0.36184271,0.27547533,-0.32287057,0.46255379,0.48712119,-0.41412091,0.24141667,-0.16887417,-0.38842433,0.09489731,-0.02574236,0.25441755,-0.25658437,-0.43792535
-1.89759015,-2.45321952,1.30066689,4.22242904,-2.07344655,-4.06166600,-2.46227782,0.27817595,-0.83748475,-0.62882935,1.70159790,-4.18295018,-6.76534816,0.61977416,5.27138936,4.55264454,2.92653097
-2.35134518,2.07315534,-1.54135383,1.58049183,-0.98262266,2.96989334,-0.97256060,-4.11879599,-2.38317277,2.02191391,-2.12040791,-0.80295909,-0.78600696,-1.65516286,-2.09385773,-1.07144311,2.33067659
0.45465288,-0.64567625,0.57161088,1.57937743,0.08041069,-0.67231712,-1.93127895,-1.17612195,-5.87912137,1.65164590,2.34555395,3.23608455,-3.60692230,-0.66096950,-0.24191771,0.43278376,-0.24216634
-0.29794430,0.10557635,-0.32403610,-0.00562313,-0.40155910,0.16551715,0.07459974,-0.03213864,-0.49087005,-0.04553511,-0.29236116,-0.46855097,-0.44211916,-0.26660566,-0.11064839,0.09651496,0.40696847
0.46137551,-0.18412149,-0.08408579,0.18994786,0.26471025,-0.08085083,0.12332198,-0.06907334,-0.17119093,-0.33481791,-0.36808972,0.16894450,-0.32396526,-0.30326707,0.38966232,0.11678704,-0.27081661
1.06385703,-0.83752186,0.09950869,3.25495552,-4.79356553,2.47132216,1.00330629,-4.36105023,-4.86662059,-4.13378286,3.23924108,-1.42444916,2.86358048,3.00111071,4.34970140,-1.40826377,0.53893953
-4.87086983,-0.61725005,-3.90471726,-1.40904244,5.16619240,1.79601000,-0.49885308,2.04073802,4.91206117,-3.68514232,0.20437099,-1.97481652,1.49928978,1.88748559,4.47123094,-2.07954384,0.27784040
-0.30781764,-1.29062380,-1.12238988,1.33865788,-0.08218454,-5.57614730,-0.25712495,-1.48854411,4.24615186,0.83211401,-1.78882791,5.19527320,-0.13944809,-1.15825378,-2.86650826,5.29435501,-1.30809045
1.49386582,3.58795413,-1.62012419,-1.06633241,-4.60092298,-0.21975163,-0.44428749,-3.76231991,3.84458925,0.95074293,0.63445968,2.32095601,-7.87954626,-0.05397975,-1.34637042,0.94905157,-0.90452827
0.75550587,-0.66870539,0.83663680,0.18333922,0.36503529,-0.62472686,0.21268051,0.27014834,0.64608553,-0.92602815,-0.62787424,-0.41508492,0.39363648,-0.23435045,0.74835035,0.21851960,-0.45354462
-1.57113093,0.65975608,1.06959494,-0.63545564,0.87222066,1.13147552,-1.86025138,3.20971910,-1.69681591,3.17957167,2.45609851,-3.67299235,2.21612274,-1.51324391,-4.21454630,-1.88030403,1.29988739
-0.26013146,-0.25784542,-0.16490152,0.04053111,0.41673654,0.19190580,-0.21255525,-0.05553365,0.44278704,0.11129742,-0.21140181,-0.47892768,-0.13521660,-0.29444527,0.39216414,0.05430968,-0.10934407
1.08180583,0.38480994,-3.37254435,2.13005030,1.45667390,0.27351468,1.65040388,2.83439685,-0.78448259,-3.09361659,1.06635856,2.16717500,-1.51458703,2.53659584,-1.51844778,1.51850399,-2.63810898
-0.93773702,2.04147043,-4.36849071,-1.84400342,0.68735614,0.34116344,-3.20084309,-0.86306913,2.99530200,4.07639498,1.16937207,0.00463834,-0.42890599,-1.31635043,4.20319404,2.87284834,-3.29763512
-0.21974711,1.70080539,-1.11648150,-0.91692965,1.39673061,-1.87137657,6.13653828,-0.49717026,-0.18062201,-2.68048279,-2.15784304,1.43924410,4.06702815,-4.69398787,-3.88529795,3.55922913,0.79159921
0.45588921,-0.14434806,0.10153302,0.35088596,-0.35478768,-0.09001317,-0.38976675,-0.28186282,-0.19970752,-0.05186830,-0.43691999,-0.34572886,0.19397303,-0.21133541,-0.49927619,-0.12156174,0.24079536
0.32009339,-0.43011261,0.15355388,0.07982116,-0.42931913,-0.25411237,-0.43255409,-0.42489395,0.44412061,-0.10359508,-0.00331126,0.36446730,0.33327738,-0.41137425,0.31554613,0.38702048,-0.37490463
-0.34610746,-0.00774778,0.90399983,-0.98634928,1.80320648,-2.08467850,1.31379142,0.05580846,0.37658526,1.27093575,-2.30459706,5.33125522,2.77628354,1.77817238,-4.10363842,0.52262292,-3.15166580
3.25202259,4.11539250,-1.76409304,-4.58462924,-2.93705608,-0.79311788,-3.23908323,-1.58502850,0.56414895,5.19682863,-0.16877540,-0.55982202,0.84837760,1.28432074,2.49827726,-0.84984510,-1.96024320
-1.07291425,-1.91602613,-0.74784084,-0.69549369,-1.07839378,-3.64482830,-0.52345359,3.36996993,0.95549127,1.01549896,3.80083097,1.16277766,3.82485708,-1.73879536,-2.69442179,-1.34137449,0.18365436
1.68795818,0.27895173,-1.32164813,0.07424933,-1.76174695,4.41867621,0.56504090,4.23286997,-1.02852052,3.37511432,-0.24667094,2.85901107,-9.24689163,2.05585622,3.32564008,-8.74658258,-1.33489185
-0.38076418,0.42788476,-0.12965789,-0.13545640,-0.07487716,0.40804773,-0.36767174,-0.21501816,0.01545763,-0.37450789,-0.23867000,-0.48614460,-0.16673788,0.16441847,0.20921964,-0.27779473,-0.25466170
0.16151534,0.01699125,-0.38594062,0.22211787,-0.03558207,-0.44494550,-0.30164686,-0.06016665,-0.02160755,-0.18481289,0.12426147,-0.24684110,-0.33797707,0.20416439,0.21532338,0.36041162,-0.15881449
0.40926225,-3.75539381,0.92257247,-0.18285587,-4.65647471,1.22834877,2.41637198,-1.51501684,3.61328092,-1.98735381,-0.23143408,1.52044714,-0.90687294,-0.04563584,-1.04527154,0.48893512,0.02845313
0.34577654,2.24533525,-2.23585243,1.82108702,-3.27286433,0.33642855,3.23741261,0.00972483,-1.77917377,1.81760677,2.25503376,0.92064670,-0.69280827,-0.97695165,-3.80074954,0.47045208,-1.90558773
0.01897049,1.40795730,-1.73910002,-2.22936935,2.08306011,1.98766718,-1.70476054,-1.87919082,-4.95690415,-2.46791708,1.57029023,0.49683729,5.96175807,-1.72927944,-1.98512408,1.42145627,1.31280292
-0.27008031,1.54080304,-2.05385359,-0.08964256,0.81762901,4.19145968,-4.32274662,2.62240489,-2.11589166,0.47405282,0.77338312,0.54095429,-0.85213029,-4.64715620,2.58431046,-2.00401733,2.22091711
-0.10386975,-0.02977081,-0.18709372,0.12755211,0.04243599,0.28423414,-0.34966582,0.43615528,-0.02610858,-0.06126591,-0.42101810,-0.47366253,0.34228034,0.45706046,-0.34209723,-0.21813105,-0.23000275
-4.88675784,-2.78362243,-3.43552017,4.46271997,5.75682298,2.12373154,1.19911717,-0.45768343,5.25901546,3.56609666,2.29023324,-1.74321040,-1.71987182,-2.50316973,1.42695504,-2.68287354,-1.57450718
-0.95758545,0.57246120,1.71025115,-2.08721702,-0.22881999,0.59744792,-1.23566091,-7.77228824,3.37251490,-0.50139253,5.57773673,-2.52870267,1.24535018,1.43767948,3.46138632,-1.95336955,-0.14379490
-0.38692892,0.09990234,0.26158940,-0.03746147,0.05479598,-0.43032624,-0.15910825,-0.15935240,-0.49026460,0.36336863,0.15300455,-0.13310648,-0.15086825,0.31933042,0.07383953,-0.34984893,-0.26497696
-3.28166561,-1.56901699,1.63803299,-0.59827168,3.29621556,-0.13581038,1.19672150,-1.24805570,-4.18591693,4.06310992,0.48509153,-2.87614121,3.46572846,-2.00453851,-0.85901237,2.06252411,0.22962284
1.73974452,-0.56487334,0.27566759,-1.44067855,1.36336869,2.87732034,-1.15247571,1.55267469,-1.21289609,-3.65953575,-5.72399424,1.05677706,2.55311637,-0.40246695,1.07102701,-0.67258087,1.63174254
-0.15141758,-0.41628773,-0.39675588,-0.01506088,-0.30693991,-0.21776482,0.44677572,0.32207709,-0.05571154,-0.22569964,-0.30755028,0.37035737,0.42568743,-0.23339030,0.03187658,-0.46731468,-0.39684744
-0.33714530,-0.44689755,0.38898875,-0.46136022,0.12651282,0.07487825,-0.36292029,-0.01008929,-0.39841261,-0.30421347,-0.50395446,-0.40466576,0.27629158,-0.06918173,-0.45537681,0.31403690,0.38231238
0.54567757,0.65042623,-1.12125890,0.22906870,-0.05336484,-0.60076708,3.36889325,1.13794818,-1.31289049,-3.00084707,1.99139061,2.57098989,-3.75258780,1.16682755,1.06090387,2.82048003,-4.08795048
1.70235793,0.24052397,-3.74202670,-2.52745209,1.19690555,-4.77859759,-2.30006083,1.98302094,4.03052362,1.15601319,1.31174871,3.46304516,1.10230728,3.06739657,6.66185407,-2.50077448,-3.48625228
-0.64045417,-0.75170245,-1.41459071,1.55015064,0.94289538,-2.20755144,0.13800095,-1.83836273,3.23350390,-1.56096086,-1.75242320,-0.04334625,1.98492559,-3.04021031,-2.68966916,-0.44612705,4.57653245
0.50425343,1.58973155,-4.28717099,-1.76560858,2.99650680,1.96410968,3.34685637,-3.12977999,6.10798400,-2.09494813,-3.16813511,0.81958502,-1.12112979,-1.85928864,3.95262253,1.53554611,-1.99939052
0.28562675,-2.14216490,0.16075777,3.41992503,3.58344859,0.80785794,1.04449792,1.32349097,-4.80206926,2.80449781,-0.53532087,-3.22314214,-1.84025202,0.87150603,1.17848172,-1.40006376,-0.94891078
-0.04064004,0.24304415,0.23893801,-0.30793664,0.25661787,-0.21093378,-0.16667845,-0.21544473,0.02986645,-0.10629008,0.04343700,-0.32830142,0.29915416,-0.06728187,0.28566078,-0.56871174,-0.22159357
-3.01373102,-0.22854009,1.13528108,-2.63100041,3.49512724,0.21535033,1.47989627,-0.45945931,-4.15859047,1.07792784,-4.61027205,-7.18761867,0.37037383,-0.34476166,3.97336424,2.85001664,4.18709059
2.39963870,-2.85330072,-1.97829177,4.00608186,-2.01116524,2.66891250,0.27022675,4.87766174,-5.12599385,-1.43694958,-4.12168838,2.63535680,0.12691796,1.45716935,4.37864062,2.29951962,-2.95383637
0.42807827,0.17951267,-0.16439601,-0.36322637,0.23093007,-0.23046674,-0.00719559,-0.32425673,0.40970793,-0.43355017,-0.29128804,-0.02391679,-0.24653169,0.11140286,0.14430327,-0.40795153,0.00136995
-0.35331177,-0.25549081,0.37125182,-0.36612473,-0.02563287,-0.08492013,0.22904964,0.03012743,-0.25789055,0.08700490,-0.41662824,-0.49492932,0.04549353,0.27541620,-0.28637804,-0.03337402,-0.00784974
-0.37147701,0.34399068,-0.29838518,0.32668032,0.00844155,-0.48312326,-0.26225763,0.02594138,0.18686867,-0.00932340,-0.37462996,-0.00280069,0.28212836,-0.36633399,0.45989868,0.16462704,-0.22751354
0.09245843,-2.98138425,5.18255304,-0.65470542,-0.58801113,3.49340349,0.73999357,3.25143996,-1.29750560,-1.38513829,2.69277125,1.40804651,2.77489660,-5.92825602,0.91358408,1.30433952,-1.57516769
0.22716453,0.31514939,-0.29522080,0.13173315,-0.12529374,0.37646107,-0.30556658,-0.06193731,0.34829249,0.17622913,0.01670888,-0.24666585,-0.22911771,-0.40823084,-0.40765099,-0.04417554,-0.48260445
2.27975933,1.21423568,-1.66164480,0.97501362,-3.71081549,1.91084512,2.16968887,4.42405244,-0.57797936,2.48041274,-2.48924412,-3.77440538,-1.53515002,-2.99678924,-0.68067991,-0.06237170,0.79400819
0.46389106,-0.26756301,-0.10233350,-0.05399673,0.54679125,-0.50720982,0.03894475,-0.50374597,-0.57666710,0.37528951,-0.03715669,0.27557225,-0.16178163,0.52417833,-0.14237718,-0.10525423,-0.41058830
2.54845734,5.42928089,-0.91681950,-3.54418668,-2.60026593,-3.45085554,-1.26825302,-0.09023790,-2.99977061,-1.77299487,0.32098109,-2.51642634,3.35433090,-0.48847384,-0.51937894,0.72689513,3.73244471
1.73749940,1.35533491,1.71189435,-0.47991800,0.22196071,0.68386493,0.37285767,-0.24945311,0.11674131,-2.16950481,-1.85348976,-0.48519219,3.21331592,-0.09938809,0.50151457,-1.15090154,-1.98030064
-0.13737907,-0.48925748,0.14082766,0.46926786,-0.25103000,0.05763421,-0.12327952,-0.00682089,0.25432600,0.20760216,0.15654469,-0.33645131,0.03169347,-0.20409253,-0.24459059,-0.42172002,-0.49038667
-0.39249721,-0.73359959,-0.72651126,0.21186215,-0.10315422,0.09453954,0.51039500,-0.55260481,-0.22495198,-0.27729240,0.85119490,-0.26274072,0.09842113,0.12125085,-1.13407675,-0.02345704,0.21136658
-0.42232124,-4.54696097,-0.72434288,3.93590290,1.21506617,1.00215587,-0.03007846,-2.62332349,2.78738992,-7.66526003,1.22614799,3.39492921,1.93192712,-2.13718112,-0.56917668,0.91677249,2.57450390
0.24726055,-0.24240668,0.47363707,-0.54553239,-0.51207060,0.67414321,0.37090234,-0.51448858,0.63378323,-0.36763567,-0.91175523,-0.80510095,-0.23505712,0.22430247,-0.36928450,0.35868487,-0.14424364
-2.64057627,1.14479797,1.93972213,0.50600262,-0.28327466,-4.65441832,5.03114584,-4.89763234,-2.02600336,-0.23496969,-4.12982991,4.19390264,-0.46770428,-6.71326978,3.25304090,-1.00048568,4.38340761
-0.52617704,-0.15625005,0.35652884,0.06994925,-0.00819598,0.02426425,-0.38592196,-0.41860664,-0.46881743,0.10964275,0.38813205,0.24805870,0.26199189,-0.37895088,0.20153258,0.00996605,-0.17449947
2.57250006,-1.98140577,-1.13695544,-1.62138540,3.03503603,-3.24276771,6.10324701,5.54007449,1.06717886,-1.97396710,-1.15015218,0.23592400,1.62022157,1.71598140,-2.31570562,-3.05923463,-0.85968925
